{
  "version": "1.0",
  "truncation": null,
  "padding": null,
  "added_tokens": [
    {
      "id": 0,
      "content": "<s>",
      "single_word": false,
      "lstrip": false,
      "rstrip": false,
      "normalized": false,
      "special": true
    },
    {
      "id": 1,
      "content": "<pad>",
      "single_word": false,
      "lstrip": false,
      "rstrip": false,
      "normalized": false,
      "special": true
    },
    {
      "id": 2,
      "content": "</s>",
      "single_word": false,
      "lstrip": false,
      "rstrip": false,
      "normalized": false,
      "special": true
    },
    {
      "id": 3,
      "content": "<unk>",
      "single_word": false,
      "lstrip": false,
      "rstrip": false,
      "normalized": false,
      "special": true
    },
    {
      "id": 4,
      "content": "<mask>",
      "single_word": false,
      "lstrip": false,
      "rstrip": false,
      "normalized": false,
      "special": true
    }
  ],
  "normalizer": null,
  "pre_tokenizer": {
    "type": "ByteLevel",
    "add_prefix_space": false,
    "trim_offsets": true,
    "use_regex": true
  },
  "post_processor": {
    "type": "ByteLevel",
    "add_prefix_space": true,
    "trim_offsets": false,
    "use_regex": true
  },
  "decoder": {
    "type": "ByteLevel",
    "add_prefix_space": true,
    "trim_offsets": true,
    "use_regex": true
  },
  "model": {
    "type": "BPE",
    "dropout": null,
    "unk_token": null,
    "continuing_subword_prefix": null,
    "end_of_word_suffix": null,
    "fuse_unk": false,
    "byte_fallback": false,
    "ignore_merges": false,
    "vocab": {
      "<s>": 0,
      "<pad>": 1,
      "</s>": 2,
      "<unk>": 3,
      "<mask>": 4,
      "!": 5,
      "\"": 6,
      "#": 7,
      "$": 8,
      "%": 9,
      "&": 10,
      "'": 11,
      "(": 12,
      ")": 13,
      "*": 14,
      "+": 15,
      ",": 16,
      "-": 17,
      ".": 18,
      "/": 19,
      "0": 20,
      "1": 21,
      "2": 22,
      "3": 23,
      "4": 24,
      "5": 25,
      "6": 26,
      "7": 27,
      "8": 28,
      "9": 29,
      ":": 30,
      ";": 31,
      "<": 32,
      "=": 33,
      ">": 34,
      "?": 35,
      "@": 36,
      "A": 37,
      "B": 38,
      "C": 39,
      "D": 40,
      "E": 41,
      "F": 42,
      "G": 43,
      "H": 44,
      "I": 45,
      "J": 46,
      "K": 47,
      "L": 48,
      "M": 49,
      "N": 50,
      "O": 51,
      "P": 52,
      "Q": 53,
      "R": 54,
      "S": 55,
      "T": 56,
      "U": 57,
      "V": 58,
      "W": 59,
      "X": 60,
      "Y": 61,
      "Z": 62,
      "[": 63,
      "\\": 64,
      "]": 65,
      "^": 66,
      "_": 67,
      "`": 68,
      "a": 69,
      "b": 70,
      "c": 71,
      "d": 72,
      "e": 73,
      "f": 74,
      "g": 75,
      "h": 76,
      "i": 77,
      "j": 78,
      "k": 79,
      "l": 80,
      "m": 81,
      "n": 82,
      "o": 83,
      "p": 84,
      "q": 85,
      "r": 86,
      "s": 87,
      "t": 88,
      "u": 89,
      "v": 90,
      "w": 91,
      "x": 92,
      "y": 93,
      "z": 94,
      "{": 95,
      "|": 96,
      "}": 97,
      "~": 98,
      "¡": 99,
      "¢": 100,
      "£": 101,
      "¤": 102,
      "¥": 103,
      "¦": 104,
      "§": 105,
      "¨": 106,
      "©": 107,
      "ª": 108,
      "«": 109,
      "¬": 110,
      "®": 111,
      "¯": 112,
      "°": 113,
      "±": 114,
      "²": 115,
      "³": 116,
      "´": 117,
      "µ": 118,
      "¶": 119,
      "·": 120,
      "¸": 121,
      "¹": 122,
      "º": 123,
      "»": 124,
      "¼": 125,
      "½": 126,
      "¾": 127,
      "¿": 128,
      "À": 129,
      "Á": 130,
      "Â": 131,
      "Ã": 132,
      "Ä": 133,
      "Å": 134,
      "Æ": 135,
      "Ç": 136,
      "È": 137,
      "É": 138,
      "Ê": 139,
      "Ë": 140,
      "Ì": 141,
      "Í": 142,
      "Î": 143,
      "Ï": 144,
      "Ð": 145,
      "Ñ": 146,
      "Ò": 147,
      "Ó": 148,
      "Ô": 149,
      "Õ": 150,
      "Ö": 151,
      "×": 152,
      "Ø": 153,
      "Ù": 154,
      "Ú": 155,
      "Û": 156,
      "Ü": 157,
      "Ý": 158,
      "Þ": 159,
      "ß": 160,
      "à": 161,
      "á": 162,
      "â": 163,
      "ã": 164,
      "ä": 165,
      "å": 166,
      "æ": 167,
      "ç": 168,
      "è": 169,
      "é": 170,
      "ê": 171,
      "ë": 172,
      "ì": 173,
      "í": 174,
      "î": 175,
      "ï": 176,
      "ð": 177,
      "ñ": 178,
      "ò": 179,
      "ó": 180,
      "ô": 181,
      "õ": 182,
      "ö": 183,
      "÷": 184,
      "ø": 185,
      "ù": 186,
      "ú": 187,
      "û": 188,
      "ü": 189,
      "ý": 190,
      "þ": 191,
      "ÿ": 192,
      "Ā": 193,
      "ā": 194,
      "Ă": 195,
      "ă": 196,
      "Ą": 197,
      "ą": 198,
      "Ć": 199,
      "ć": 200,
      "Ĉ": 201,
      "ĉ": 202,
      "Ċ": 203,
      "ċ": 204,
      "Č": 205,
      "č": 206,
      "Ď": 207,
      "ď": 208,
      "Đ": 209,
      "đ": 210,
      "Ē": 211,
      "ē": 212,
      "Ĕ": 213,
      "ĕ": 214,
      "Ė": 215,
      "ė": 216,
      "Ę": 217,
      "ę": 218,
      "Ě": 219,
      "ě": 220,
      "Ĝ": 221,
      "ĝ": 222,
      "Ğ": 223,
      "ğ": 224,
      "Ġ": 225,
      "ġ": 226,
      "Ģ": 227,
      "ģ": 228,
      "Ĥ": 229,
      "ĥ": 230,
      "Ħ": 231,
      "ħ": 232,
      "Ĩ": 233,
      "ĩ": 234,
      "Ī": 235,
      "ī": 236,
      "Ĭ": 237,
      "ĭ": 238,
      "Į": 239,
      "į": 240,
      "İ": 241,
      "ı": 242,
      "Ĳ": 243,
      "ĳ": 244,
      "Ĵ": 245,
      "ĵ": 246,
      "Ķ": 247,
      "ķ": 248,
      "ĸ": 249,
      "Ĺ": 250,
      "ĺ": 251,
      "Ļ": 252,
      "ļ": 253,
      "Ľ": 254,
      "ľ": 255,
      "Ŀ": 256,
      "ŀ": 257,
      "Ł": 258,
      "ł": 259,
      "Ń": 260,
      "Ġt": 261,
      "Ġa": 262,
      "he": 263,
      "in": 264,
      "Ġthe": 265,
      "Ġs": 266,
      "re": 267,
      "on": 268,
      "Ġw": 269,
      "er": 270,
      "Ġc": 271,
      "Ġo": 272,
      "at": 273,
      "Ġb": 274,
      "en": 275,
      "it": 276,
      "Ġp": 277,
      "Ġf": 278,
      "is": 279,
      "an": 280,
      "Ġm": 281,
      "or": 282,
      "es": 283,
      "ed": 284,
      "ing": 285,
      "Ġan": 286,
      "ou": 287,
      "Ġto": 288,
      "Ġin": 289,
      "Ġd": 290,
      "al": 291,
      "ar": 292,
      "Ġh": 293,
      "Ġof": 294,
      "Ġth": 295,
      "Ġand": 296,
      "as": 297,
      "Ġl": 298,
      "ic": 299,
      "Ġn": 300,
      "om": 301,
      "ion": 302,
      "il": 303,
      "Ġg": 304,
      "Ġre": 305,
      "Ġe": 306,
      "le": 307,
      "ent": 308,
      "st": 309,
      "ve": 310,
      "Ġbe": 311,
      "ro": 312,
      "id": 313,
      "ly": 314,
      "ut": 315,
      "ac": 316,
      "Ġon": 317,
      "ot": 318,
      "Ġu": 319,
      "Ġthat": 320,
      "Ġis": 321,
      "ay": 322,
      "Ġi": 323,
      "Ġst": 324,
      "Ġfor": 325,
      "et": 326,
      "am": 327,
      "ad": 328,
      "Ġy": 329,
      "Ġit": 330,
      "ow": 331,
      "Ġhe": 332,
      "se": 333,
      "ig": 334,
      "ver": 335,
      "ol": 336,
      "'s": 337,
      "ct": 338,
      "ur": 339,
      "Ġwh": 340,
      "im": 341,
      "Ġwe": 342,
      "Ġr": 343,
      "Ġ\"": 344,
      "Ġas": 345,
      "ir": 346,
      "ith": 347,
      "Ġal": 348,
      "ation": 349,
      "ce": 350,
      "ter": 351,
      "Ġwith": 352,
      "Ġde": 353,
      "Ġyou": 354,
      "ld": 355,
      "ill": 356,
      "ch": 357,
      "Ġj": 358,
      "Ġcon": 359,
      "ke": 360,
      "Ġse": 361,
      "Ġwas": 362,
      "ers": 363,
      "ul": 364,
      "Ġat": 365,
      "Ġmo": 366,
      "Ġne": 367,
      "Ġha": 368,
      "Ġpro": 369,
      "Ġfr": 370,
      "Ġcom": 371,
      "ate": 372,
      "Ġv": 373,
      "her": 374,
      "ag": 375,
      "Ġ1": 376,
      "un": 377,
      "Ġare": 378,
      "pp": 379,
      "Ġch": 380,
      "ment": 381,
      "Ġ2": 382,
      "est": 383,
      "us": 384,
      "op": 385,
      "and": 386,
      "th": 387,
      "el": 388,
      "Ġthis": 389,
      "ist": 390,
      "ain": 391,
      "ri": 392,
      "oun": 393,
      "igh": 394,
      "Ġk": 395,
      "Ġex": 396,
      "Ġsu": 397,
      "Ġnot": 398,
      "Ġun": 399,
      "res": 400,
      "Ġsh": 401,
      "Ġor": 402,
      "Ġ(": 403,
      "Ġhave": 404,
      "ab": 405,
      "Ġby": 406,
      "oo": 407,
      "ould": 408,
      "ess": 409,
      "ity": 410,
      "Ġtr": 411,
      "um": 412,
      "Ġfrom": 413,
      "ort": 414,
      "if": 415,
      "Ġbut": 416,
      "ant": 417,
      "ive": 418,
      "Ġsa": 419,
      "art": 420,
      "qu": 421,
      "os": 422,
      "Ġle": 423,
      "Ġab": 424,
      "oc": 425,
      "em": 426,
      "Ġpl": 427,
      "ight": 428,
      "ust": 429,
      "Ġsp": 430,
      "red": 431,
      "end": 432,
      "Ġthey": 433,
      "ies": 434,
      "out": 435,
      "Ġhas": 436,
      "all": 437,
      "ack": 438,
      "ie": 439,
      "ap": 440,
      "Ġhis": 441,
      "Ġwor": 442,
      "ect": 443,
      "Ġwhe": 444,
      "ally": 445,
      "Ġcan": 446,
      "ard": 447,
      "ome": 448,
      "gh": 449,
      "00": 450,
      "iv": 451,
      "Ġdo": 452,
      "ast": 453,
      "'t": 454,
      "Ġwill": 455,
      "our": 456,
      "ak": 457,
      "Ġall": 458,
      "ear": 459,
      "Ġsaid": 460,
      "ud": 461,
      "Ġgo": 462,
      "ren": 463,
      "Ġad": 464,
      "Ġar": 465,
      "ge": 466,
      "Ġwho": 467,
      "Ġcl": 468,
      "Ġint": 469,
      "Ġus": 470,
      "ich": 471,
      "ide": 472,
      "Ġout": 473,
      "Ġme": 474,
      "Ġli": 475,
      "Ġmore": 476,
      "ough": 477,
      "Ġso": 478,
      "Ġtheir": 479,
      ".\"": 480,
      "Ġup": 481,
      "ans": 482,
      "ame": 483,
      "ice": 484,
      "ther": 485,
      "ll": 486,
      "ial": 487,
      "Ġone": 488,
      "Ġnew": 489,
      "ound": 490,
      "one": 491,
      "ff": 492,
      "Ġcomp": 493,
      "Ġim": 494,
      "age": 495,
      "Ġen": 496,
      "pt": 497,
      "act": 498,
      "Ġabout": 499,
      "ous": 500,
      "ure": 501,
      "ions": 502,
      "Ġac": 503,
      "ong": 504,
      ",\"": 505,
      "ine": 506,
      "der": 507,
      "ore": 508,
      "Ġag": 509,
      "Ġoff": 510,
      "Ġman": 511,
      "Ġthere": 512,
      "Ġam": 513,
      "ia": 514,
      "Ġcont": 515,
      "ber": 516,
      "ated": 517,
      "ime": 518,
      "Ġte": 519,
      "Ġ20": 520,
      "Ġrep": 521,
      "ip": 522,
      "Ġwould": 523,
      "Ġexp": 524,
      "Ġif": 525,
      "ake": 526,
      "Ġev": 527,
      "Ġhad": 528,
      "Ġco": 529,
      "Ġpe": 530,
      "Ġwhich": 531,
      "very": 532,
      "Ġwere": 533,
      "ra": 534,
      "Ġro": 535,
      "so": 536,
      "ub": 537,
      "Ġsc": 538,
      "Ġno": 539,
      "Ġyear": 540,
      "ind": 541,
      "Ġbeen": 542,
      "ks": 543,
      "Ġlike": 544,
      "Ġwhen": 545,
      "iz": 546,
      "Ġper": 547,
      "Ġwhat": 548,
      "ue": 549,
      "Ġsome": 550,
      "au": 551,
      "Ġinc": 552,
      "Ġres": 553,
      "ace": 554,
      "ays": 555,
      "Ġpr": 556,
      "ign": 557,
      "ary": 558,
      "Ġaf": 559,
      "Ġother": 560,
      "Ġpo": 561,
      "Ġapp": 562,
      "Ġfe": 563,
      "ite": 564,
      "Ġover": 565,
      "Ġtw": 566,
      "Ġpart": 567,
      "ry": 568,
      "og": 569,
      "Ġdis": 570,
      "Ġqu": 571,
      "Ġjust": 572,
      "able": 573,
      "Ġthan": 574,
      "ail": 575,
      "Ġbec": 576,
      "ood": 577,
      "Ġalso": 578,
      "are": 579,
      "ople": 580,
      "Ġpol": 581,
      "ass": 582,
      "Ġgr": 583,
      "Ġ201": 584,
      "ire": 585,
      "king": 586,
      "Ġhow": 587,
      "Ġyour": 588,
      "ile": 589,
      "Ġpeople": 590,
      "Ġ3": 591,
      "Ġmy": 592,
      "Ġshe": 593,
      "int": 594,
      "ence": 595,
      "own": 596,
      "lic": 597,
      "ress": 598,
      "ations": 599,
      "ree": 600,
      "ount": 601,
      "ose": 602,
      "Ġthem": 603,
      "ult": 604,
      "Ġget": 605,
      "Ġany": 606,
      "Ġrec": 607,
      "ance": 608,
      "Ġmar": 609,
      "for": 610,
      "Ġher": 611,
      "Ġbl": 612,
      "ical": 613,
      "Ġits": 614,
      "Ġkn": 615,
      "Ġtime": 616,
      "Ġcomm": 617,
      "ase": 618,
      "av": 619,
      "Ġfir": 620,
      "ib": 621,
      "Ġbr": 622,
      "Ġafter": 623,
      "day": 624,
      "Ġact": 625,
      "ens": 626,
      "ach": 627,
      "Ġour": 628,
      "Ġplay": 629,
      "Ġpre": 630,
      "uc": 631,
      "we": 632,
      "Ġacc": 633,
      "ord": 634,
      "reat": 635,
      "Ġinto": 636,
      "od": 637,
      "Ġimp": 638,
      "the": 639,
      "vel": 640,
      "ian": 641,
      "ident": 642,
      "ep": 643,
      "Ġ-": 644,
      "con": 645,
      "ell": 646,
      "Ġfirst": 647,
      "Ġind": 648,
      "ru": 649,
      "amp": 650,
      "ory": 651,
      "ors": 652,
      "fe": 653,
      "Ġser": 654,
      "ec": 655,
      "ings": 656,
      "wn": 657,
      "ick": 658,
      "ition": 659,
      "rent": 660,
      "Ġem": 661,
      "ause": 662,
      "hing": 663,
      "ang": 664,
      "itt": 665,
      "ade": 666,
      "ook": 667,
      "per": 668,
      "ates": 669,
      "Ġatt": 670,
      "vers": 671,
      "Ġcould": 672,
      "Ġtwo": 673,
      "Ġnow": 674,
      "Ġonly": 675,
      "Ġjo": 676,
      "lo": 677,
      "old": 678,
      "Ġinter": 679,
      "hed": 680,
      "Ġ4": 681,
      "ious": 682,
      "Ġph": 683,
      "Ġmost": 684,
      "Ġhim": 685,
      "lect": 686,
      "Ġdec": 687,
      "Ġla": 688,
      "ild": 689,
      "Ġback": 690,
      "ict": 691,
      "low": 692,
      "Ġpres": 693,
      "Ġwork": 694,
      "Ġdes": 695,
      "Ġbet": 696,
      "Ġmay": 697,
      "Ġdon": 698,
      "form": 699,
      "Ġmon": 700,
      "Ġeven": 701,
      "ft": 702,
      "Ġ19": 703,
      "Ġcr": 704,
      "ink": 705,
      "Ġcol": 706,
      "ish": 707,
      "ning": 708,
      "Ġcons": 709,
      "Ġ5": 710,
      "Ġsy": 711,
      "Ġthese": 712,
      "Ġbecause": 713,
      "Ġstate": 714,
      "Ġagain": 715,
      "Ġdid": 716,
      "Ġunder": 717,
      "Ġadd": 718,
      "li": 719,
      "te": 720,
      "Ġwant": 721,
      "Ġ'": 722,
      "Ġevery": 723,
      "Ġinv": 724,
      "Ġsee": 725,
      "ise": 726,
      "ason": 727,
      "man": 728,
      "Ġob": 729,
      "Ġyears": 730,
      "Ġke": 731,
      "ater": 732,
      "Ġneed": 733,
      "ces": 734,
      "ublic": 735,
      "ved": 736,
      "lud": 737,
      "Ġbu": 738,
      "Ġknow": 739,
      "ents": 740,
      "sel": 741,
      "Ġmu": 742,
      "Ġsupp": 743,
      "Ġmake": 744,
      "Ġcar": 745,
      "iss": 746,
      "'re": 747,
      "ual": 748,
      "Ġlo": 749,
      "les": 750,
      "Ġlast": 751,
      "Ġthen": 752,
      "Ġmany": 753,
      "Ġright": 754,
      "Ġwhere": 755,
      "Ġcount": 756,
      "ments": 757,
      "Ġass": 758,
      "Ġmin": 759,
      "urn": 760,
      "du": 761,
      "eric": 762,
      "Ġwhile": 763,
      "Ġbo": 764,
      "ump": 765,
      "fore": 766,
      "Ġreg": 767,
      "Ġrem": 768,
      "Ġthr": 769,
      "vern": 770,
      "Ġworld": 771,
      "Ġway": 772,
      "cess": 773,
      "ne": 774,
      "gr": 775,
      "Ġsm": 776,
      "Ġthose": 777,
      "Ġfin": 778,
      "Ġcall": 779,
      "ful": 780,
      "Ġgu": 781,
      "Ġwell": 782,
      "oup": 783,
      "Ġbeing": 784,
      "ational": 785,
      "Ġdown": 786,
      "Ġshow": 787,
      "ject": 788,
      "Ġpos": 789,
      "ert": 790,
      "Ġgovern": 791,
      "Ġdef": 792,
      "ating": 793,
      "xt": 794,
      "row": 795,
      "Ġinclud": 796,
      "Ġinst": 797,
      "Ġsay": 798,
      "aking": 799,
      "Ġthrough": 800,
      "Ġed": 801,
      "ving": 802,
      "Ġshould": 803,
      "Ġgen": 804,
      "iew": 805,
      "Ġdif": 806,
      "Ġear": 807,
      "Ġrel": 808,
      "Ġteam": 809,
      "Ġmuch": 810,
      "Ġfl": 811,
      "ased": 812,
      "Ġvery": 813,
      "Ġtoo": 814,
      "get": 815,
      "Ġdoes": 816,
      "Ġend": 817,
      "ited": 818,
      "Ġreport": 819,
      "Ġbefore": 820,
      "Ġform": 821,
      "ty": 822,
      "Ġwar": 823,
      "uring": 824,
      "other": 825,
      "ities": 826,
      "ction": 827,
      "rib": 828,
      "Ġlong": 829,
      "ath": 830,
      "Ġmed": 831,
      "ked": 832,
      "Ġstart": 833,
      "Ġown": 834,
      "Ġuse": 835,
      "Ġ6": 836,
      "Ġchar": 837,
      "Ġwee": 838,
      "Ġameric": 839,
      "Ġdem": 840,
      "ting": 841,
      "Ġgame": 842,
      "als": 843,
      "Ġgood": 844,
      "Ġstud": 845,
      "Ġbot": 846,
      "ative": 847,
      "ons": 848,
      "Ġhere": 849,
      "Ġwr": 850,
      "ters": 851,
      "Ġdep": 852,
      "ics": 853,
      "ince": 854,
      "ward": 855,
      "Ġstr": 856,
      "Ġhel": 857,
      "ange": 858,
      "Ġsur": 859,
      "ues": 860,
      "Ġthink": 861,
      "ys": 862,
      "Ġsim": 863,
      "omet": 864,
      "Ġcent": 865,
      "Ġ200": 866,
      "Ġsub": 867,
      "Ġfun": 868,
      "Ġent": 869,
      "Ġcour": 870,
      "Ġmade": 871,
      "Ġstill": 872,
      "Ġop": 873,
      ").": 874,
      "up": 875,
      "Ġset": 876,
      "ible": 877,
      "Ġgoing": 878,
      "ble": 879,
      "Ġsuch": 880,
      "ily": 881,
      "Ġlaw": 882,
      "ific": 883,
      "ced": 884,
      "Ġlead": 885,
      "rest": 886,
      "Ġhigh": 887,
      "rop": 888,
      "ower": 889,
      "ied": 890,
      "Ġoffic": 891,
      "Ġpoint": 892,
      "ife": 893,
      "Ġagainst": 894,
      "Ġhelp": 895,
      "erson": 896,
      "ond": 897,
      "ms": 898,
      "Ġgovernment": 899,
      "ost": 900,
      "Ġpar": 901,
      "Ġtake": 902,
      "ists": 903,
      "ular": 904,
      "illion": 905,
      "Ġeff": 906,
      "Ġpresident": 907,
      "Ġsays": 908,
      "ually": 909,
      "Ġma": 910,
      "Ġfol": 911,
      "ility": 912,
      "led": 913,
      "Ġsec": 914,
      "its": 915,
      "Ġthough": 916,
      "olog": 917,
      "Ġprov": 918,
      "Ġcap": 919,
      "Ġtrans": 920,
      "Ġread": 921,
      "Ġter": 922,
      "Ġsign": 923,
      "ix": 924,
      "Ġbel": 925,
      "Ġins": 926,
      "Ġfound": 927,
      "co": 928,
      "Ġ10": 929,
      "ves": 930,
      "Ġ7": 931,
      "gan": 932,
      "Ġsch": 933,
      "Ġresp": 934,
      "way": 935,
      "Ġmat": 936,
      "Ġmem": 937,
      "Ġche": 938,
      "stem": 939,
      "io": 940,
      "000": 941,
      "Ġrun": 942,
      "Ġsomet": 943,
      "Ġday": 944,
      "imes": 945,
      "),": 946,
      "'ve": 947,
      "ket": 948,
      "cy": 949,
      "ts": 950,
      "Ġbro": 951,
      "Ġtrump": 952,
      "Ġcompan": 953,
      "Ġcor": 954,
      "Ġthree": 955,
      "Ġcur": 956,
      "Ġgroup": 957,
      "Ġsince": 958,
      "de": 959,
      "Ġret": 960,
      "land": 961,
      "Ġreal": 962,
      "Ġpublic": 963,
      "Ġnum": 964,
      "ween": 965,
      "read": 966,
      "Ġsame": 967,
      "Ġbig": 968,
      "uss": 969,
      "cent": 970,
      "Ġgreat": 971,
      "Ġpa": 972,
      "ven": 973,
      "ures": 974,
      "Ġbetween": 975,
      "Ġdiffe": 976,
      "self": 977,
      "ton": 978,
      "Ġz": 979,
      "ames": 980,
      "ull": 981,
      "Ġspec": 982,
      "Ġdr": 983,
      "ism": 984,
      "Ġloc": 985,
      "Ġduring": 986,
      "Ġaut": 987,
      "Ġsystem": 988,
      "Ġaround": 989,
      "Ġwom": 990,
      "Ġboth": 991,
      "Ġdet": 992,
      "ss": 993,
      "Ġsupport": 994,
      "eral": 995,
      "ying": 996,
      "Ġfam": 997,
      "Ġfollow": 998,
      "gg": 999,
      "Ġsen": 1000,
      "Ġ8": 1001,
      "Ġbus": 1002,
      "Ġleg": 1003,
      "velop": 1004,
      "Ġweek": 1005,
      "Ġpost": 1006,
      "Ġreally": 1007,
      "Ġnews": 1008,
      "ution": 1009,
      "pl": 1010,
      "hip": 1011,
      "ouse": 1012,
      "ives": 1013,
      "Ġdire": 1014,
      "ool": 1015,
      "ph": 1016,
      "ork": 1017,
      "Ġhand": 1018,
      "Ġsoc": 1019,
      "Ġnor": 1020,
      "Ġtal": 1021,
      "Ġcle": 1022,
      "Ġext": 1023,
      "Ġhapp": 1024,
      "ather": 1025,
      "ah": 1026,
      "ner": 1027,
      "hes": 1028,
      "Ġdevelop": 1029,
      "Ġfind": 1030,
      "Ġconf": 1031,
      "Ġanother": 1032,
      "oot": 1033,
      "Ġused": 1034,
      "Ġlet": 1035,
      "ins": 1036,
      "ds": 1037,
      "Ġcity": 1038,
      "Ġfact": 1039,
      "alth": 1040,
      "com": 1041,
      "'m": 1042,
      "Ġcre": 1043,
      "Ġelect": 1044,
      "Ġput": 1045,
      "Ġlar": 1046,
      "Ġpolit": 1047,
      "Ġprot": 1048,
      "Ġmonth": 1049,
      "Ġart": 1050,
      "Ġ9": 1051,
      "Ġel": 1052,
      "Ġfar": 1053,
      "cept": 1054,
      "Ġiss": 1055,
      "Ġlook": 1056,
      "pr": 1057,
      "ax": 1058,
      "ale": 1059,
      "Ġcommun": 1060,
      "Ġcamp": 1061,
      "Ġmet": 1062,
      "ger": 1063,
      "air": 1064,
      "Ġfil": 1065,
      "ices": 1066,
      "Ġplan": 1067,
      "ee": 1068,
      "Ġcontin": 1069,
      "Ġtold": 1070,
      "Ġperson": 1071,
      "ience": 1072,
      "cl": 1073,
      "az": 1074,
      "bs": 1075,
      "Ġuni": 1076,
      "Ġinvest": 1077,
      "Ġlot": 1078,
      "min": 1079,
      "ient": 1080,
      "ever": 1081,
      "Ġfew": 1082,
      "Ġpolice": 1083,
      "ording": 1084,
      "akes": 1085,
      "Ġinte": 1086,
      "ave": 1087,
      "Ġopen": 1088,
      "ision": 1089,
      "Ġopp": 1090,
      "ines": 1091,
      "Ġvot": 1092,
      "Ġnext": 1093,
      "Ġpri": 1094,
      "yp": 1095,
      "Ġseason": 1096,
      "Ġpower": 1097,
      "Ġadv": 1098,
      "Ġdirect": 1099,
      "ages": 1100,
      "ock": 1101,
      "Ġinf": 1102,
      "Ġlife": 1103,
      "Ġbest": 1104,
      "Ġhead": 1105,
      "ared": 1106,
      "Ġbelie": 1107,
      "Ġintern": 1108,
      "Ġsecon": 1109,
      "Ġpass": 1110,
      "ically": 1111,
      "Ġeach": 1112,
      "Ġref": 1113,
      "Ġchild": 1114,
      "Ġsomething": 1115,
      "Ġrequ": 1116,
      "Ġrele": 1117,
      "Ġcome": 1118,
      "arch": 1119,
      "Ġprodu": 1120,
      "ash": 1121,
      "Ġdist": 1122,
      "Ġhome": 1123,
      "Ġeng": 1124,
      "Ġnever": 1125,
      "Ġav": 1126,
      "Ġmil": 1127,
      "Ġbre": 1128,
      "Ġthings": 1129,
      "Ġpat": 1130,
      "bers": 1131,
      "Ġserv": 1132,
      "ially": 1133,
      "Ġtop": 1134,
      "Ġgot": 1135,
      "ned": 1136,
      "Ġaccording": 1137,
      "med": 1138,
      "anc": 1139,
      "Ġhum": 1140,
      "ention": 1141,
      "Ġquest": 1142,
      "Ġdifferent": 1143,
      "ata": 1144,
      "Ġbar": 1145,
      "Ġann": 1146,
      "Ġtech": 1147,
      "'ll": 1148,
      "ck": 1149,
      "view": 1150,
      "Ġban": 1151,
      "ont": 1152,
      "Ġhard": 1153,
      "Ġwhy": 1154,
      "Ġcare": 1155,
      "ute": 1156,
      "iness": 1157,
      "Ġmight": 1158,
      "iet": 1159,
      "be": 1160,
      "thing": 1161,
      "Ġval": 1162,
      "Ġpercent": 1163,
      "Ġposs": 1164,
      "Ġschool": 1165,
      "Ġhouse": 1166,
      "erg": 1167,
      "Ġsl": 1168,
      "ized": 1169,
      "Ġfour": 1170,
      "ross": 1171,
      "Ġwin": 1172,
      "Ġnational": 1173,
      "Ġallow": 1174,
      "Ġstates": 1175,
      "cc": 1176,
      "Ġfeel": 1177,
      "son": 1178,
      "ier": 1179,
      "ten": 1180,
      "Ġcontro": 1181,
      "Ġ0": 1182,
      "Ġinform": 1183,
      "ody": 1184,
      "Ġhowever": 1185,
      "Ġstand": 1186,
      "ants": 1187,
      "Ġwithout": 1188,
      "ene": 1189,
      "tern": 1190,
      "ize": 1191,
      "atch": 1192,
      "ield": 1193,
      "Ġsw": 1194,
      "Ġtri": 1195,
      "Ġrecent": 1196,
      "Ġbuild": 1197,
      "cer": 1198,
      "Ġseem": 1199,
      "Ġexper": 1200,
      "Ġsecond": 1201,
      "Ġmillion": 1202,
      "Ġmus": 1203,
      "ittle": 1204,
      "ric": 1205,
      "ital": 1206,
      "Ġplace": 1207,
      "Ġeu": 1208,
      "Ġturn": 1209,
      "ected": 1210,
      "Ġcountry": 1211,
      "ling": 1212,
      "br": 1213,
      "ama": 1214,
      "Ġstre": 1215,
      "Ġcomple": 1216,
      "Ġincluding": 1217,
      "gram": 1218,
      "Ġste": 1219,
      "Ġpop": 1220,
      "Ġincre": 1221,
      "Ġlittle": 1222,
      "Ġkeep": 1223,
      "conom": 1224,
      "ness": 1225,
      "Ġhealth": 1226,
      "Ġimport": 1227,
      "Ġbetter": 1228,
      "Ġpay": 1229,
      "Ġide": 1230,
      "rat": 1231,
      "Ġresult": 1232,
      "ired": 1233,
      "line": 1234,
      "Ġproble": 1235,
      "Ġwon": 1236,
      "less": 1237,
      "wh": 1238,
      "sc": 1239,
      "Ġair": 1240,
      "Ġexpl": 1241,
      "Ġes": 1242,
      "gress": 1243,
      "Ġinterest": 1244,
      "Ġdisc": 1245,
      "Ġrese": 1246,
      "Ġnumber": 1247,
      "Ġ.": 1248,
      "ately": 1249,
      "Ġmain": 1250,
      "Ġeas": 1251,
      "Ġtest": 1252,
      "oney": 1253,
      "Ġtimes": 1254,
      "Ġless": 1255,
      "Ġsol": 1256,
      "orn": 1257,
      "Ġprogram": 1258,
      "Ġcase": 1259,
      "Ġloo": 1260,
      "Ġprof": 1261,
      "Ġeconom": 1262,
      "Ġsk": 1263,
      "Ġspe": 1264,
      "Ġleft": 1265,
      "iting": 1266,
      "Ġrest": 1267,
      "Ġbeh": 1268,
      "Ġface": 1269,
      "Ġdri": 1270,
      "Ġhar": 1271,
      "Ġra": 1272,
      "ways": 1273,
      "Ġchr": 1274,
      "Ġcompany": 1275,
      "Ġfree": 1276,
      "ered": 1277,
      "aim": 1278,
      "Ġwomen": 1279,
      "Ġprev": 1280,
      "sh": 1281,
      "Ġve": 1282,
      "Ġproject": 1283,
      "Ġmove": 1284,
      "Ġattack": 1285,
      "Ġusing": 1286,
      "osed": 1287,
      "ably": 1288,
      "Ġpartic": 1289,
      "Ġlist": 1290,
      "me": 1291,
      "Ġdata": 1292,
      "Ġnear": 1293,
      "att": 1294,
      "Ġtechn": 1295,
      "Ġcalled": 1296,
      "Ġhist": 1297,
      "ged": 1298,
      "ral": 1299,
      "Ġcurrent": 1300,
      "Ġmaj": 1301,
      "ished": 1302,
      "ina": 1303,
      "Ġbusiness": 1304,
      "ised": 1305,
      "Ġgiv": 1306,
      "Ġred": 1307,
      "ertain": 1308,
      "Ġdidn": 1309,
      "ency": 1310,
      "Ġx": 1311,
      "Ġmarket": 1312,
      "Ġstory": 1313,
      "Ġmiss": 1314,
      "Ġ12": 1315,
      "ains": 1316,
      "Ġmod": 1317,
      "Ġofficial": 1318,
      "ration": 1319,
      "ug": 1320,
      "Ġchange": 1321,
      "ained": 1322,
      "to": 1323,
      "ract": 1324,
      "uck": 1325,
      "hen": 1326,
      "ider": 1327,
      "Ġsmall": 1328,
      "Ġunivers": 1329,
      "Ġvis": 1330,
      "ready": 1331,
      "Ġnet": 1332,
      "Ġgre": 1333,
      "Ġhop": 1334,
      "Ġamerican": 1335,
      "Ġprom": 1336,
      "Ġ--": 1337,
      "Ġorgan": 1338,
      "Ġtoday": 1339,
      "Ġvide": 1340,
      "Ġconst": 1341,
      "Ġmajor": 1342,
      "Ġbit": 1343,
      "bo": 1344,
      "ense": 1345,
      "by": 1346,
      "pped": 1347,
      "Ġlevel": 1348,
      "Ġdesign": 1349,
      "ret": 1350,
      "hn": 1351,
      "Ġeffect": 1352,
      "Ġinformation": 1353,
      "Ġphot": 1354,
      "Ġmoney": 1355,
      "Ġcourt": 1356,
      "Ġalready": 1357,
      "Ġcal": 1358,
      "Ġrece": 1359,
      "rence": 1360,
      "Ġprocess": 1361,
      "loy": 1362,
      "Ġold": 1363,
      "Ġaff": 1364,
      "ark": 1365,
      "Ġunited": 1366,
      "Ġunt": 1367,
      "Ġmen": 1368,
      "Ġpast": 1369,
      "Ġoper": 1370,
      "Ġlater": 1371,
      "Ġ15": 1372,
      "Ġparty": 1373,
      "Ġcost": 1374,
      "Ġclass": 1375,
      "Ġmr": 1376,
      "Ġpress": 1377,
      "hor": 1378,
      "aign": 1379,
      "ined": 1380,
      "Ġsimp": 1381,
      "Ġest": 1382,
      "ided": 1383,
      "Ġreason": 1384,
      "Ġwhite": 1385,
      "ets": 1386,
      "Ġvi": 1387,
      "Ġview": 1388,
      "Ġchang": 1389,
      "ok": 1390,
      "Ġfore": 1391,
      "Ġpolic": 1392,
      "Ġalways": 1393,
      "Ġcampaign": 1394,
      "Ġir": 1395,
      "Ġpur": 1396,
      "ology": 1397,
      "used": 1398,
      "Ġmid": 1399,
      "ends": 1400,
      "Ġmean": 1401,
      "ature": 1402,
      "aff": 1403,
      "Ġclaim": 1404,
      "Ġgames": 1405,
      "Ġtax": 1406,
      "Ġbas": 1407,
      "Ġdemoc": 1408,
      "Ġmedia": 1409,
      "Ġkill": 1410,
      "ians": 1411,
      "inal": 1412,
      "Ġclear": 1413,
      "Ġfamily": 1414,
      "Ġthing": 1415,
      "Ġ,": 1416,
      "ted": 1417,
      "Ġmor": 1418,
      "Ġfri": 1419,
      "oss": 1420,
      "Ġgrow": 1421,
      "Ġtyp": 1422,
      "Ġbill": 1423,
      "Ġrepublic": 1424,
      "Ġable": 1425,
      "Ġdev": 1426,
      "Ġrecord": 1427,
      "Ġappro": 1428,
      "Ġdoesn": 1429,
      "aw": 1430,
      "Ġonce": 1431,
      "Ġmust": 1432,
      "Ġfed": 1433,
      "stand": 1434,
      "Ġsing": 1435,
      "orts": 1436,
      "Ġtell": 1437,
      "Ġaway": 1438,
      "Ġblack": 1439,
      "Ġhuman": 1440,
      "Ġhappen": 1441,
      "Ġmaking": 1442,
      "Ġwal": 1443,
      "Ġdays": 1444,
      "aining": 1445,
      "Ġvar": 1446,
      "Ġprop": 1447,
      "Ġformer": 1448,
      "Ġemp": 1449,
      "no": 1450,
      "Ġdeb": 1451,
      "pect": 1452,
      "Ġimportant": 1453,
      "Ġsuc": 1454,
      "Ġfull": 1455,
      "ars": 1456,
      "Ġline": 1457,
      "ending": 1458,
      "rap": 1459,
      "ards": 1460,
      "outh": 1461,
      "ney": 1462,
      "Ġyet": 1463,
      "ruct": 1464,
      "urity": 1465,
      "Ġ18": 1466,
      "Ġjohn": 1467,
      "Ġuntil": 1468,
      "Ġdeal": 1469,
      "Ġleast": 1470,
      "Ġnight": 1471,
      "Ġ11": 1472,
      "erv": 1473,
      "Ġworking": 1474,
      "Ġenough": 1475,
      "ior": 1476,
      "Ġsun": 1477,
      "acy": 1478,
      "ured": 1479,
      "Ġsit": 1480,
      "Ġyoun": 1481,
      "ption": 1482,
      "ik": 1483,
      "Ġsocial": 1484,
      "Ġever": 1485,
      "'d": 1486,
      "mm": 1487,
      "Ġcame": 1488,
      "Ġpolitical": 1489,
      "Ġkind": 1490,
      "ides": 1491,
      "atur": 1492,
      "Ġant": 1493,
      "Ġlarge": 1494,
      "ury": 1495,
      "Ġsever": 1496,
      "gin": 1497,
      "ising": 1498,
      "Ġpot": 1499,
      "Ġexamp": 1500,
      "ases": 1501,
      "ley": 1502,
      "year": 1503,
      "Ġfut": 1504,
      "Ġactually": 1505,
      "Ġhal": 1506,
      "Ġwhether": 1507,
      "Ġplayers": 1508,
      "let": 1509,
      "und": 1510,
      "Ġedit": 1511,
      "Ġer": 1512,
      "Ġgive": 1513,
      "Ġwater": 1514,
      "Ġcoun": 1515,
      "ird": 1516,
      "Ġca": 1517,
      "ional": 1518,
      "ror": 1519,
      "Ġevent": 1520,
      "Ġhaving": 1521,
      "Ġfive": 1522,
      "ister": 1523,
      "Ġruss": 1524,
      "Ġsure": 1525,
      "augh": 1526,
      "ator": 1527,
      "gu": 1528,
      "Ġlear": 1529,
      "Ġgener": 1530,
      "Ġtook": 1531,
      "Ġuniversity": 1532,
      "Ġbecome": 1533,
      "Ġje": 1534,
      "Ġseveral": 1535,
      "Ġland": 1536,
      "Ġfac": 1537,
      "Ġlab": 1538,
      "ality": 1539,
      "side": 1540,
      "Ġsal": 1541,
      "Ġorder": 1542,
      "Ġauthor": 1543,
      "Ġchildren": 1544,
      "Ġoften": 1545,
      "els": 1546,
      "most": 1547,
      "Ġap": 1548,
      "Ġperform": 1549,
      "Ġsecurity": 1550,
      "ries": 1551,
      "vert": 1552,
      "Ġreturn": 1553,
      "Ġce": 1554,
      "Ġname": 1555,
      "Ġvideo": 1556,
      "ived": 1557,
      "Ġamong": 1558,
      "Ġearly": 1559,
      "Ġcrit": 1560,
      "ony": 1561,
      "Ġdepart": 1562,
      "Ġmeet": 1563,
      "Ġgl": 1564,
      "Ġsuper": 1565,
      "Ġsour": 1566,
      "Ġcommunity": 1567,
      "Ġdemocrat": 1568,
      "Ġinvestig": 1569,
      "ove": 1570,
      "Ġcontrol": 1571,
      "ering": 1572,
      "Ġmilit": 1573,
      "duc": 1574,
      "Ġdoing": 1575,
      "\".": 1576,
      "Ġobama": 1577,
      "Ġnorth": 1578,
      "Ġequ": 1579,
      "Ġmembers": 1580,
      "app": 1581,
      "Ġfuture": 1582,
      "aps": 1583,
      "ges": 1584,
      "Ġfight": 1585,
      "ane": 1586,
      "ched": 1587,
      "Ġshort": 1588,
      "here": 1589,
      "Ġpriv": 1590,
      "Ġalong": 1591,
      "Ġside": 1592,
      "rope": 1593,
      "Ġappear": 1594,
      "aring": 1595,
      "ison": 1596,
      "raft": 1597,
      "ified": 1598,
      "Ġseen": 1599,
      "Ġlight": 1600,
      "Ġhour": 1601,
      "Ġcharac": 1602,
      "Ġlikely": 1603,
      "Ġfre": 1604,
      "Ġsex": 1605,
      "Ġlocal": 1606,
      "Ġorig": 1607,
      "Ġquestion": 1608,
      "Ġvers": 1609,
      "Ġproduct": 1610,
      "Ġyork": 1611,
      "Ġlove": 1612,
      "Ġocc": 1613,
      "aken": 1614,
      "Ġstep": 1615,
      "Ġwent": 1616,
      "ember": 1617,
      "icle": 1618,
      "Ġcertain": 1619,
      "ither": 1620,
      "ought": 1621,
      "ank": 1622,
      "ization": 1623,
      "Ġyoung": 1624,
      "inc": 1625,
      "iously": 1626,
      "ball": 1627,
      "itter": 1628,
      "Ġgiven": 1629,
      "ots": 1630,
      "ones": 1631,
      "Ġbook": 1632,
      "Ġdone": 1633,
      "Ġmonths": 1634,
      "Ġsuccess": 1635,
      "20": 1636,
      "Ġviol": 1637,
      "ware": 1638,
      "work": 1639,
      "Ġge": 1640,
      "ium": 1641,
      "Ġfund": 1642,
      "Ġvict": 1643,
      "Ġeurope": 1644,
      "Ġasked": 1645,
      "Ġlim": 1646,
      "ories": 1647,
      "Ġcut": 1648,
      "ster": 1649,
      "Ġ30": 1650,
      "lf": 1651,
      "Ġnon": 1652,
      "Ġwithin": 1653,
      "Ġactiv": 1654,
      "urs": 1655,
      "ague": 1656,
      "mber": 1657,
      "nes": 1658,
      "Ġinvol": 1659,
      "idence": 1660,
      "Ġgetting": 1661,
      "Ġothers": 1662,
      "Ġavail": 1663,
      "Ġdi": 1664,
      "Ġ/": 1665,
      "go": 1666,
      "my": 1667,
      "Ġcourse": 1668,
      "Ġseries": 1669,
      "Ġhold": 1670,
      "Ġcreat": 1671,
      "une": 1672,
      "Ġfur": 1673,
      "Ġacross": 1674,
      "Ġoffice": 1675,
      "Ġproblem": 1676,
      "not": 1677,
      "na": 1678,
      "Ġindust": 1679,
      "Ġexample": 1680,
      "ead": 1681,
      "Ġhistory": 1682,
      "Ġresearch": 1683,
      "Ġannoun": 1684,
      "back": 1685,
      "ential": 1686,
      "Ġgeneral": 1687,
      "imate": 1688,
      "Ġlive": 1689,
      "Ġdesc": 1690,
      "Ġwatch": 1691,
      "ended": 1692,
      "Ġunderstand": 1693,
      "Ġfail": 1694,
      "empt": 1695,
      "Ġfollowing": 1696,
      "ats": 1697,
      "Ġmakes": 1698,
      "Ġ2016": 1699,
      "Ġlow": 1700,
      "Ġspace": 1701,
      "Ġ199": 1702,
      "ubl": 1703,
      "Ġpossible": 1704,
      "Ġmeans": 1705,
      "Ġprob": 1706,
      "Ġreported": 1707,
      "leg": 1708,
      "Ġstrong": 1709,
      "Ġfire": 1710,
      "Ġsouth": 1711,
      "Ġdeath": 1712,
      "ilar": 1713,
      "Ġfederal": 1714,
      "verage": 1715,
      "Ġaccess": 1716,
      "Ġtar": 1717,
      "ggest": 1718,
      "Ġwind": 1719,
      "Ġservice": 1720,
      "ler": 1721,
      "Ġsent": 1722,
      "Ġknown": 1723,
      "Ġsix": 1724,
      "ourn": 1725,
      "Ġbelieve": 1726,
      "ortun": 1727,
      "Ġthought": 1728,
      "Ġmom": 1729,
      "Ġsuggest": 1730,
      "ensive": 1731,
      "allen": 1732,
      "Ġ#": 1733,
      "Ġbad": 1734,
      "Ġclose": 1735,
      "que": 1736,
      "Ġmag": 1737,
      "book": 1738,
      "Ġstar": 1739,
      "Ġple": 1740,
      "Ġbased": 1741,
      "ued": 1742,
      "Ġesp": 1743,
      "Ġdel": 1744,
      "Ġhig": 1745,
      "Ġmass": 1746,
      "Ġchrist": 1747,
      "Ġaddition": 1748,
      "Ġfoot": 1749,
      "iving": 1750,
      "Ġinstead": 1751,
      "Ġadded": 1752,
      "aged": 1753,
      "Ġ13": 1754,
      "itive": 1755,
      "Ġ16": 1756,
      "Ġident": 1757,
      "Ġprotect": 1758,
      "Ġspecial": 1759,
      "Ġcust": 1760,
      "Ġtot": 1761,
      "Ġlooking": 1762,
      "Ġpolicy": 1763,
      "Ġglo": 1764,
      "Ġaccount": 1765,
      "Ġfood": 1766,
      "Ġissue": 1767,
      "Ġalmost": 1768,
      "ald": 1769,
      "Ġconn": 1770,
      "Ġsn": 1771,
      "Ġcond": 1772,
      "Ġrepres": 1773,
      "Ġavailable": 1774,
      "Ġisn": 1775,
      "Ġago": 1776,
      "ulation": 1777,
      "Ġkey": 1778,
      "Ġfoc": 1779,
      "fic": 1780,
      "Ġtrad": 1781,
      "ls": 1782,
      "oci": 1783,
      "ances": 1784,
      "Ġcomes": 1785,
      "Ġ14": 1786,
      "Ġstarted": 1787,
      "Ġjud": 1788,
      "por": 1789,
      "Ġdepartment": 1790,
      "Ġtoget": 1791,
      "Ġ2015": 1792,
      "Ġtogether": 1793,
      "Ġrights": 1794,
      "ivid": 1795,
      "Ġ25": 1796,
      "Ġarea": 1797,
      "Ġconcer": 1798,
      "Ġimpro": 1799,
      "Ġtrying": 1800,
      "Ġjob": 1801,
      "ming": 1802,
      "Ġlat": 1803,
      "Ġden": 1804,
      "Ġemploy": 1805,
      "Ġhalf": 1806,
      "Ġrul": 1807,
      "Ġinternational": 1808,
      "Ġanal": 1809,
      "Ġ&": 1810,
      "Ġamerica": 1811,
      "hers": 1812,
      "ands": 1813,
      "Ġmess": 1814,
      "ien": 1815,
      "ams": 1816,
      "ament": 1817,
      "Ġsimilar": 1818,
      "gest": 1819,
      "Ġsus": 1820,
      "Ġdou": 1821,
      "Ġtry": 1822,
      "ex": 1823,
      "Ġcanad": 1824,
      "Ġexperience": 1825,
      "Ġparticular": 1826,
      "Ġris": 1827,
      "ateg": 1828,
      "Ġcommitt": 1829,
      "ails": 1830,
      "Ġidea": 1831,
      "Ġmult": 1832,
      "Ġcolle": 1833,
      "ring": 1834,
      "inton": 1835,
      "Ġadmin": 1836,
      "Ġassoci": 1837,
      "Ġrather": 1838,
      "Ġport": 1839,
      "Ġplayer": 1840,
      "uly": 1841,
      "utes": 1842,
      "Ġfurther": 1843,
      "itions": 1844,
      "ief": 1845,
      "Ġep": 1846,
      "ission": 1847,
      "lement": 1848,
      "iety": 1849,
      "Ġcompet": 1850,
      "Ġconsider": 1851,
      "unch": 1852,
      "Ġenv": 1853,
      "ergy": 1854,
      "Ġfav": 1855,
      "Ġcomplete": 1856,
      "Ġanything": 1857,
      "Ġcop": 1858,
      "Ġpract": 1859,
      "Ġpubl": 1860,
      "selves": 1861,
      "Ġwa": 1862,
      "Ġfig": 1863,
      "Ġsaying": 1864,
      "Ġ2014": 1865,
      "Ġrad": 1866,
      "bal": 1867,
      "Ġbene": 1868,
      "Ġmilitary": 1869,
      "Ġstat": 1870,
      "den": 1871,
      "Ġtra": 1872,
      "Ġbehind": 1873,
      "Ġmot": 1874,
      "Ġquick": 1875,
      "Ġcapt": 1876,
      "Ġhit": 1877,
      "uge": 1878,
      "ann": 1879,
      "ids": 1880,
      "ability": 1881,
      "Ġprofess": 1882,
      "rict": 1883,
      "Ġcenter": 1884,
      "ination": 1885,
      "Ġaust": 1886,
      "iter": 1887,
      "rael": 1888,
      "Ġsomeone": 1889,
      "gle": 1890,
      "Ġthreat": 1891,
      "Ġclinton": 1892,
      "Ġtaken": 1893,
      "uff": 1894,
      "Ġ17": 1895,
      "port": 1896,
      "Ġmind": 1897,
      "pro": 1898,
      "Ġexec": 1899,
      "Ġfront": 1900,
      "Ġupd": 1901,
      "Ġvir": 1902,
      "aster": 1903,
      "Ġimm": 1904,
      "Ġadminist": 1905,
      "Ġpen": 1906,
      "hington": 1907,
      "Ġnothing": 1908,
      "ference": 1909,
      "Ġbring": 1910,
      "Ġsumm": 1911,
      "Ġcult": 1912,
      "Ġfield": 1913,
      "Ġtaking": 1914,
      "Ġconv": 1915,
      "Ġdam": 1916,
      "ators": 1917,
      "Ġtur": 1918,
      "Ġcustom": 1919,
      "Ġger": 1920,
      "Ġcollect": 1921,
      "ps": 1922,
      "wards": 1923,
      "Ġdiscuss": 1924,
      "Ġ100": 1925,
      "Ġproper": 1926,
      "Ġsan": 1927,
      "ograp": 1928,
      "Ġpret": 1929,
      "ape": 1930,
      "Ġstudy": 1931,
      "Ġsingle": 1932,
      "Ġdoc": 1933,
      "jo": 1934,
      "Ġgun": 1935,
      "Ġtre": 1936,
      "Ġfilm": 1937,
      "Ġindivid": 1938,
      "Ġfall": 1939,
      "Ġhope": 1940,
      "Ġentire": 1941,
      "osp": 1942,
      "Ġbi": 1943,
      "Ġchallen": 1944,
      "raw": 1945,
      "Ġsound": 1946,
      "Ġcoming": 1947,
      "Ġstri": 1948,
      "Ġpresent": 1949,
      "Ġadvert": 1950,
      "ush": 1951,
      "Ġcand": 1952,
      "Ġdevelopment": 1953,
      "Ġfinal": 1954,
      "sw": 1955,
      "Ġenergy": 1956,
      "Ġwest": 1957,
      "Ġhol": 1958,
      "Ġcomb": 1959,
      "Ġofficials": 1960,
      "Ġcontinue": 1961,
      "Ġdom": 1962,
      "Ġball": 1963,
      "aper": 1964,
      "Ġeverything": 1965,
      "iron": 1966,
      "Ġprobably": 1967,
      "Ġwanted": 1968,
      "Ġthird": 1969,
      "Ġdav": 1970,
      "Ġfeat": 1971,
      "Ġpoints": 1972,
      "rug": 1973,
      "Ġaction": 1974,
      "Ġstop": 1975,
      "yn": 1976,
      "Ġpet": 1977,
      "Ġisrael": 1978,
      "lier": 1979,
      "Ġleague": 1980,
      "oice": 1981,
      "pping": 1982,
      "off": 1983,
      "Ġsecret": 1984,
      "Ġuk": 1985,
      "Ġcreate": 1986,
      "Ġcam": 1987,
      "Ġshare": 1988,
      "Ġhom": 1989,
      "amed": 1990,
      "Ġcompanies": 1991,
      "Ġdecision": 1992,
      "Ġwashington": 1993,
      "Ġbelow": 1994,
      "Ġimage": 1995,
      "Ġmusic": 1996,
      "Ġtarget": 1997,
      "Ġindividual": 1998,
      "Ġtwitter": 1999,
      "par": 2000,
      "though": 2001,
      "Ġmic": 2002,
      "Ġelse": 2003,
      "Ġ)": 2004,
      "su": 2005,
      "Ġattempt": 2006,
      "Ġscre": 2007,
      "of": 2008,
      "Ġeither": 2009,
      "Ġstudents": 2010,
      "Ġeveryone": 2011,
      "af": 2012,
      "Ġdesp": 2013,
      "Ġopt": 2014,
      "Ġbur": 2015,
      "Ġstreet": 2016,
      "Ġbrit": 2017,
      "che": 2018,
      "?\"": 2019,
      "Ġenc": 2020,
      "iday": 2021,
      "Ġtem": 2022,
      "Ġbody": 2023,
      "Ġmc": 2024,
      "Ġinit": 2025,
      "ron": 2026,
      "Ġexpect": 2027,
      "Ġtit": 2028,
      "Ġ50": 2029,
      "Ġleaders": 2030,
      "Ġrepresent": 2031,
      "rote": 2032,
      "Ġissues": 2033,
      "Ġey": 2034,
      "oint": 2035,
      "ches": 2036,
      "Ġroom": 2037,
      "Ġbreak": 2038,
      "Ġstatement": 2039,
      "Ġbegin": 2040,
      "Ġenviron": 2041,
      "ify": 2042,
      "erc": 2043,
      "sp": 2044,
      "Ġdue": 2045,
      "Ġdirector": 2046,
      "reme": 2047,
      "Ġcongress": 2048,
      "Ġjan": 2049,
      ".,": 2050,
      "irc": 2051,
      "Ġcoup": 2052,
      "Ġang": 2053,
      "Ġrelations": 2054,
      "ob": 2055,
      "Ġdrug": 2056,
      "Ġ:": 2057,
      "Ġreleased": 2058,
      "ana": 2059,
      "Ġforce": 2060,
      "Ġcred": 2061,
      "Ġliber": 2062,
      "Ġbuilding": 2063,
      "Ġboo": 2064,
      "Ġoutside": 2065,
      "dle": 2066,
      "Ġmatter": 2067,
      "Ġ2013": 2068,
      ".)": 2069,
      "Ġeduc": 2070,
      "Ġwrote": 2071,
      "Ġservices": 2072,
      "Ġciv": 2073,
      "Ġseems": 2074,
      "Ġdocu": 2075,
      "Ġur": 2076,
      "hy": 2077,
      "Ġtrue": 2078,
      "Ġgir": 2079,
      "Ġtreat": 2080,
      "Ġdescrib": 2081,
      "Ġroad": 2082,
      "aces": 2083,
      "Ġclub": 2084,
      "Ġmeas": 2085,
      "Ġinterview": 2086,
      "Ġwhole": 2087,
      "Ġself": 2088,
      "ai": 2089,
      "Ġhours": 2090,
      "Ġargu": 2091,
      "asing": 2092,
      "Ġvol": 2093,
      "Ġreview": 2094,
      "Ġ2017": 2095,
      "Ġrev": 2096,
      "Ġwoman": 2097,
      "attle": 2098,
      "ns": 2099,
      "Ġaddress": 2100,
      "Ġchina": 2101,
      "Ġrole": 2102,
      "this": 2103,
      "ov": 2104,
      "Ġrunning": 2105,
      "Ġcommon": 2106,
      "Ġfinanc": 2107,
      "head": 2108,
      "Ġsignific": 2109,
      "Ġrelease": 2110,
      "Ġdeep": 2111,
      "Ġneg": 2112,
      "Ġposition": 2113,
      "Ġagree": 2114,
      "Ġrob": 2115,
      "Ġdead": 2116,
      "Ġonline": 2117,
      "Ġelection": 2118,
      "Ġalthough": 2119,
      "ows": 2120,
      "ites": 2121,
      "Ġappe": 2122,
      "Ġmarch": 2123,
      "Ġexist": 2124,
      "Ġpick": 2125,
      "oll": 2126,
      "Ġminister": 2127,
      "ault": 2128,
      "Ġgoo": 2129,
      "Ġsimply": 2130,
      "Ġ2012": 2131,
      "ecially": 2132,
      "Ġanim": 2133,
      "\",": 2134,
      "play": 2135,
      "body": 2136,
      "fer": 2137,
      "Ġfacebook": 2138,
      "Ġfriends": 2139,
      "ott": 2140,
      "Ġindustry": 2141,
      "Ġpal": 2142,
      "mb": 2143,
      "Ġlegal": 2144,
      "Ġground": 2145,
      "Ġinj": 2146,
      "Ġthin": 2147,
      "Ġwed": 2148,
      "Ġaud": 2149,
      "10": 2150,
      "lim": 2151,
      "Ġrecently": 2152,
      "ender": 2153,
      "Ġpack": 2154,
      "Ġprovide": 2155,
      "Ġben": 2156,
      "Ġearlier": 2157,
      "uation": 2158,
      "ively": 2159,
      "ilt": 2160,
      "Ġcountries": 2161,
      "Ġcandid": 2162,
      "Ġmill": 2163,
      "aut": 2164,
      "Ġbenef": 2165,
      "Ġversion": 2166,
      "like": 2167,
      "Ġtrack": 2168,
      "Ġpretty": 2169,
      "ibility": 2170,
      "Ġabove": 2171,
      "Ġplaying": 2172,
      "Ġdespite": 2173,
      "Ġamount": 2174,
      "Ġneeds": 2175,
      "Ġgreen": 2176,
      "itch": 2177,
      "wor": 2178,
      "ox": 2179,
      "Ġsqu": 2180,
      "Ġinfl": 2181,
      "Ġtechnology": 2182,
      "ades": 2183,
      "Ġsto": 2184,
      "duct": 2185,
      "Ġcirc": 2186,
      "Ġdiv": 2187,
      "Ġwasn": 2188,
      "Ġexc": 2189,
      "Ġenvironment": 2190,
      "Ġcharacter": 2191,
      "Ġdest": 2192,
      "Ġvote": 2193,
      "Ġshows": 2194,
      "Ġeconomic": 2195,
      "ager": 2196,
      "Ġscient": 2197,
      "Ġspecific": 2198,
      "Ġrespons": 2199,
      "Ġhost": 2200,
      "Ġlost": 2201,
      "Ġnation": 2202,
      "Ġarticle": 2203,
      "olution": 2204,
      "Ġsoon": 2205,
      "ficult": 2206,
      "ma": 2207,
      "Ġproduc": 2208,
      "sec": 2209,
      "Ġlate": 2210,
      "Ġespecially": 2211,
      "Ġled": 2212,
      "Ġbillion": 2213,
      "atic": 2214,
      "ham": 2215,
      "Ġcy": 2216,
      "Ġsource": 2217,
      "Ġbank": 2218,
      "Ġphys": 2219,
      "Ġhill": 2220,
      "Ġwebs": 2221,
      "Ġbegan": 2222,
      "Ġcode": 2223,
      "Ġtalk": 2224,
      "Ġsil": 2225,
      "Ġthemselves": 2226,
      "Ġyes": 2227,
      "Ġconnect": 2228,
      "Ġdifficult": 2229,
      "Ġmov": 2230,
      "Ġhimself": 2231,
      "Ġshoot": 2232,
      "Ġmur": 2233,
      "Ġconsum": 2234,
      "Ġcivil": 2235,
      "Ġgroups": 2236,
      "Ġabs": 2237,
      "Ġplayed": 2238,
      "arc": 2239,
      "Ġforward": 2240,
      "Ġsaw": 2241,
      "Ġcit": 2242,
      "Ġemail": 2243,
      "Ġsite": 2244,
      "use": 2245,
      "Ġpark": 2246,
      "yle": 2247,
      "Ġill": 2248,
      "Ġglobal": 2249,
      "Ġitself": 2250,
      "Ġevidence": 2251,
      "ili": 2252,
      "Ġanti": 2253,
      "Ġquite": 2254,
      "Ġbud": 2255,
      "time": 2256,
      "Ġbase": 2257,
      "Ġage": 2258,
      "Ġ24": 2259,
      "Ġoct": 2260,
      "Ġboard": 2261,
      "Ġexecut": 2262,
      "Ġopportun": 2263,
      "Ġrepublican": 2264,
      "Ġtotal": 2265,
      "Ġjourn": 2266,
      "Ġpain": 2267,
      "Ġstay": 2268,
      "Ġstaff": 2269,
      "Ġran": 2270,
      "elt": 2271,
      "Ġsignificant": 2272,
      "aced": 2273,
      "Ġworks": 2274,
      "Ġanyone": 2275,
      "Ġmich": 2276,
      "fully": 2277,
      "Ġweeks": 2278,
      "iding": 2279,
      "tr": 2280,
      "where": 2281,
      "Ġforeign": 2282,
      "Ġbor": 2283,
      "ging": 2284,
      "Ġgerman": 2285,
      "Ġbroad": 2286,
      "Ġinclude": 2287,
      "Ġwall": 2288,
      "Ġhor": 2289,
      "Ġgoal": 2290,
      "oud": 2291,
      "50": 2292,
      "Ġfocus": 2293,
      "Ġconserv": 2294,
      "Ġprice": 2295,
      "Ġinstit": 2296,
      "Ġmi": 2297,
      "Ġgoogle": 2298,
      "ners": 2299,
      "Ġpie": 2300,
      "lish": 2301,
      "Ġneeded": 2302,
      "Ġbecame": 2303,
      "ribut": 2304,
      "Ġdig": 2305,
      "lin": 2306,
      "Ġsense": 2307,
      "key": 2308,
      "Ġ21": 2309,
      "Ġsyri": 2310,
      "lam": 2311,
      "Ġchanges": 2312,
      "ently": 2313,
      "Ġpred": 2314,
      "Ġparent": 2315,
      "Ġcomment": 2316,
      "Ġspeak": 2317,
      "Ġri": 2318,
      "Ġcoll": 2319,
      "Ġcheck": 2320,
      "umb": 2321,
      "Ġver": 2322,
      "Ġwrong": 2323,
      "Ġmis": 2324,
      "Ġrelig": 2325,
      "Ġjournal": 2326,
      "Ġchief": 2327,
      "ival": 2328,
      "Ġaug": 2329,
      "Ġreve": 2330,
      "Ġsuff": 2331,
      "Ġcontract": 2332,
      "Ġsept": 2333,
      "Ġadministration": 2334,
      "Ġaw": 2335,
      "ural": 2336,
      "Ġvalue": 2337,
      "Ġcomput": 2338,
      "Ġpotential": 2339,
      "lev": 2340,
      "Ġmoment": 2341,
      "iod": 2342,
      "Ġgold": 2343,
      "Ġpersonal": 2344,
      "Ġapplic": 2345,
      "mon": 2346,
      "ried": 2347,
      "Ġminutes": 2348,
      "angu": 2349,
      "Ġaccept": 2350,
      "Ġlog": 2351,
      "Ġ198": 2352,
      "Ġobject": 2353,
      "ule": 2354,
      "Ġrepl": 2355,
      "Ġgod": 2356,
      "Ġsold": 2357,
      "Ġoil": 2358,
      "Ġlonger": 2359,
      "Ġfriday": 2360,
      "Ġten": 2361,
      "Ġheart": 2362,
      "Ġexpress": 2363,
      "Ġpopular": 2364,
      "Ġfans": 2365,
      "Ġhigher": 2366,
      "Ġterror": 2367,
      "Ġnearly": 2368,
      "Ġresults": 2369,
      "Ġmiddle": 2370,
      "Ġbuy": 2371,
      "ung": 2372,
      "Ġprim": 2373,
      "ift": 2374,
      "Ġsand": 2375,
      "load": 2376,
      "30": 2377,
      "right": 2378,
      "Ġpict": 2379,
      "Ġeasy": 2380,
      "Ġsurpr": 2381,
      "medi": 2382,
      "Ġcard": 2383,
      "sy": 2384,
      "Ġtues": 2385,
      "Ġbal": 2386,
      "Ġsell": 2387,
      "Ġprivate": 2388,
      "Ġsoft": 2389,
      "Ġshot": 2390,
      "bor": 2391,
      "Ġimpact": 2392,
      "11": 2393,
      "Ġperiod": 2394,
      "Ġinside": 2395,
      "Ġfinancial": 2396,
      "Ġdeter": 2397,
      "ees": 2398,
      "istic": 2399,
      "Ġrich": 2400,
      "Ġmoder": 2401,
      "Ġfavor": 2402,
      "ij": 2403,
      "Ġchance": 2404,
      "Ġlos": 2405,
      "Ġansw": 2406,
      "Ġinternet": 2407,
      "ached": 2408,
      "fl": 2409,
      "Ġmonday": 2410,
      "ery": 2411,
      "Ġnetwork": 2412,
      "epend": 2413,
      "Ġheld": 2414,
      "ser": 2415,
      "Ġhot": 2416,
      "Ġchamp": 2417,
      "arter": 2418,
      "Ġtuesday": 2419,
      "Ġexpected": 2420,
      "Ġquestions": 2421,
      "kn": 2422,
      "cle": 2423,
      "Ġcurrently": 2424,
      "Ġjune": 2425,
      "Ġaustral": 2426,
      "Ġ@": 2427,
      "Ġmal": 2428,
      "Ġannounced": 2429,
      "Ġwords": 2430,
      "Ġul": 2431,
      "Ġmodel": 2432,
      "Ġrate": 2433,
      ".'": 2434,
      "Ġphone": 2435,
      "Ġcontent": 2436,
      "Ġber": 2437,
      "Ġapr": 2438,
      "Ġreports": 2439,
      "Ġtou": 2440,
      "Ġdecl": 2441,
      "Ġusers": 2442,
      "hod": 2443,
      "gn": 2444,
      "Ġcreated": 2445,
      "Ġengine": 2446,
      "Ġadvertise": 2447,
      "Ġhon": 2448,
      "ew": 2449,
      "Ġq": 2450,
      "Ġ40": 2451,
      "Ġrisk": 2452,
      "Ġphoto": 2453,
      "Ġcounty": 2454,
      "Ġleave": 2455,
      "ston": 2456,
      "Ġcollege": 2457,
      "bc": 2458,
      "ef": 2459,
      "ients": 2460,
      "Ġtown": 2461,
      "Ġspok": 2462,
      "Ġjuly": 2463,
      "Ġstrateg": 2464,
      "Ġliving": 2465,
      "Ġways": 2466,
      "Ġrac": 2467,
      "Ġselect": 2468,
      "Ġoriginal": 2469,
      "cil": 2470,
      "there": 2471,
      "Ġfair": 2472,
      "Ġmother": 2473,
      "aging": 2474,
      "isl": 2475,
      "onse": 2476,
      "19": 2477,
      "Ġproblems": 2478,
      "Ġscience": 2479,
      "anger": 2480,
      "Ġpage": 2481,
      "Ġdefense": 2482,
      "ker": 2483,
      "uary": 2484,
      "uel": 2485,
      "Ġarrest": 2486,
      "Ġheav": 2487,
      "Ġaverage": 2488,
      "Ġworth": 2489,
      "Ġut": 2490,
      "Ġintro": 2491,
      "str": 2492,
      "ilities": 2493,
      "Ġreceived": 2494,
      "Ġround": 2495,
      "oid": 2496,
      "Ġadm": 2497,
      "Ġincrease": 2498,
      "Ġexact": 2499,
      "ze": 2500,
      "Ġoppos": 2501,
      "itting": 2502,
      "ctor": 2503,
      "haps": 2504,
      "Ġpan": 2505,
      "orm": 2506,
      "Ġmater": 2507,
      "Ġnatur": 2508,
      "Ġet": 2509,
      "ote": 2510,
      "Ġ2011": 2511,
      "Ġtrade": 2512,
      "lex": 2513,
      "Ġtype": 2514,
      "Ġconc": 2515,
      "you": 2516,
      "atives": 2517,
      "ript": 2518,
      "rew": 2519,
      "apan": 2520,
      "Ġfem": 2521,
      "Ġworkers": 2522,
      "Ġrussia": 2523,
      "Ġcapital": 2524,
      "fect": 2525,
      "Ġking": 2526,
      "Ġlangu": 2527,
      "Ġlives": 2528,
      "Ġinvolved": 2529,
      "Ġmember": 2530,
      "Ġamericans": 2531,
      "Ġmedical": 2532,
      "Ġchur": 2533,
      "Ġlegisl": 2534,
      "Ġwednes": 2535,
      "cast": 2536,
      "Ġdisco": 2537,
      "Ġresponse": 2538,
      "Ġthurs": 2539,
      "Ġren": 2540,
      "Ġrespond": 2541,
      "Ġleader": 2542,
      "Ġrequest": 2543,
      "Ġapril": 2544,
      "Ġcamer": 2545,
      "Ġfunction": 2546,
      "Ġnecess": 2547,
      "Ġindepend": 2548,
      "Ġteams": 2549,
      "Ġdavid": 2550,
      "Ġcommittee": 2551,
      "Ġwednesday": 2552,
      "hood": 2553,
      "gth": 2554,
      "Ġpublished": 2555,
      "Ġ22": 2556,
      "Ġweap": 2557,
      "Ġvisit": 2558,
      "Ġeast": 2559,
      "bi": 2560,
      "Ġplans": 2561,
      "Ġrom": 2562,
      "Ġthursday": 2563,
      "Ġrace": 2564,
      "Ġfriend": 2565,
      "Ġnote": 2566,
      "Ġperhaps": 2567,
      "light": 2568,
      "Ġimmedi": 2569,
      "Ġmaybe": 2570,
      "omm": 2571,
      "Ġlin": 2572,
      "Ġcannot": 2573,
      "Ġcalif": 2574,
      "oke": 2575,
      "Ġbat": 2576,
      "Ġwebsite": 2577,
      "Ġkilled": 2578,
      "ires": 2579,
      "Ġfinally": 2580,
      "Ġcases": 2581,
      "action": 2582,
      "Ġlink": 2583,
      "Ġrelationship": 2584,
      "ream": 2585,
      "ude": 2586,
      "Ġvia": 2587,
      "Ġtv": 2588,
      "bert": 2589,
      "Ġpaul": 2590,
      "Ġtakes": 2591,
      "Ġdefin": 2592,
      "vered": 2593,
      "Ġtool": 2594,
      "ode": 2595,
      "hern": 2596,
      "Ġmark": 2597,
      "Ġregard": 2598,
      "Ġearth": 2599,
      "ask": 2600,
      "Ġcell": 2601,
      "Ġconfir": 2602,
      "iple": 2603,
      "Ġworked": 2604,
      "Ġson": 2605,
      "Ġunion": 2606,
      "ogn": 2607,
      "Ġjustice": 2608,
      "Ġmeeting": 2609,
      "bit": 2610,
      "Ġtravel": 2611,
      "Ġweb": 2612,
      "Ġjapan": 2613,
      "Ġgeor": 2614,
      "Ġoffer": 2615,
      "ny": 2616,
      "Ġunf": 2617,
      "Ġcentral": 2618,
      "Ġlack": 2619,
      "Ġcoach": 2620,
      "Ġagency": 2621,
      "Ġword": 2622,
      "Ġreb": 2623,
      "Ġbecom": 2624,
      "Ġperformance": 2625,
      "itten": 2626,
      "Ġcareer": 2627,
      "Ġenjo": 2628,
      "Ġability": 2629,
      "Ġpers": 2630,
      "Ġfather": 2631,
      "Ġdeli": 2632,
      "Ġphil": 2633,
      "Ġcolor": 2634,
      "Ġdecided": 2635,
      "Ġhuge": 2636,
      "based": 2637,
      "Ġcouncil": 2638,
      "Ġmorning": 2639,
      "Ġsimple": 2640,
      "Ġimages": 2641,
      "Ġamaz": 2642,
      "pe": 2643,
      "Ġcross": 2644,
      "Ġgoes": 2645,
      "do": 2646,
      "ored": 2647,
      "ises": 2648,
      "ray": 2649,
      "Ġsunday": 2650,
      "asc": 2651,
      "val": 2652,
      "Ġtext": 2653,
      "izing": 2654,
      "Ġbox": 2655,
      "Ġevents": 2656,
      "Ġhappened": 2657,
      "Ġestab": 2658,
      "Ġterms": 2659,
      "Ġmatch": 2660,
      "Ġarri": 2661,
      "Ġ2010": 2662,
      "ael": 2663,
      "Ġcitiz": 2664,
      "Ġblock": 2665,
      "Ġvictim": 2666,
      "Ġprogress": 2667,
      "Ġsubject": 2668,
      "ellig": 2669,
      "Ġsociety": 2670,
      "Ġrequire": 2671,
      "mer": 2672,
      "Ġsituation": 2673,
      "Ġcontact": 2674,
      "Ġclos": 2675,
      "Ġdemocratic": 2676,
      "Ġmaterial": 2677,
      "Ġthous": 2678,
      "ops": 2679,
      "reg": 2680,
      "Ġdece": 2681,
      "Ġslow": 2682,
      "Ġimprove": 2683,
      "Ġcouple": 2684,
      "Ġneigh": 2685,
      "Ġislam": 2686,
      "Ġplease": 2687,
      "verse": 2688,
      "Ġmach": 2689,
      "vember": 2690,
      "enc": 2691,
      "Ġmicro": 2692,
      "Ġcommission": 2693,
      "oring": 2694,
      "Ġmethod": 2695,
      "Ġeconomy": 2696,
      "down": 2697,
      "unt": 2698,
      "Ġfeb": 2699,
      "clus": 2700,
      "Ġcast": 2701,
      "Ġask": 2702,
      "Ġeducation": 2703,
      "Ġparticip": 2704,
      "Ġgave": 2705,
      "Ġcover": 2706,
      "Ġwhose": 2707,
      "Ġhosp": 2708,
      "Ġmanage": 2709,
      "Ġsometimes": 2710,
      "ese": 2711,
      "Ġjanuary": 2712,
      "Ġfear": 2713,
      "Ġrespect": 2714,
      "Ġnumbers": 2715,
      "over": 2716,
      "bl": 2717,
      "ino": 2718,
      "hic": 2719,
      "Ġsaf": 2720,
      "ips": 2721,
      "Ġfast": 2722,
      "aled": 2723,
      "Ġ+": 2724,
      "Ġfell": 2725,
      "Ġdistrict": 2726,
      "Ġforces": 2727,
      "Ġcanada": 2728,
      "omb": 2729,
      "Ġbir": 2730,
      "orters": 2731,
      "Ġbri": 2732,
      "Ġclimate": 2733,
      "Ġwants": 2734,
      "Ġlower": 2735,
      "Ġsearch": 2736,
      "Ġnorm": 2737,
      "Ġareas": 2738,
      "Ġrecogn": 2739,
      "Ġnovember": 2740,
      "Ġcaliforn": 2741,
      "Ġlatest": 2742,
      "istan": 2743,
      "Ġfootball": 2744,
      "ober": 2745,
      "Ġseptember": 2746,
      "xic": 2747,
      "Ġbuilt": 2748,
      "Ġsatur": 2749,
      "Ġprem": 2750,
      "Ġplat": 2751,
      "Ġloss": 2752,
      "ety": 2753,
      "Ġarch": 2754,
      "Ġresident": 2755,
      "Ġsong": 2756,
      "force": 2757,
      "Ġmer": 2758,
      "Ġapproach": 2759,
      "Ġtor": 2760,
      "Ġinflu": 2761,
      "Ġult": 2762,
      "Ġtim": 2763,
      "pa": 2764,
      "Ġquickly": 2765,
      "Ġturned": 2766,
      "Ġtradition": 2767,
      "what": 2768,
      "Ġ23": 2769,
      "Ġspeed": 2770,
      "new": 2771,
      "Ġsenate": 2772,
      "Ġeuropean": 2773,
      "Ġ197": 2774,
      "Ġemerg": 2775,
      "Ġrepe": 2776,
      "Ġhy": 2777,
      "Ġwide": 2778,
      "Ġlearn": 2779,
      "Ġsurve": 2780,
      "Ġproduction": 2781,
      "mp": 2782,
      "Ġafric": 2783,
      "aily": 2784,
      "Ġintellig": 2785,
      "Ġperfect": 2786,
      "Ġess": 2787,
      "Ġjobs": 2788,
      "Ġprevious": 2789,
      "Ġspent": 2790,
      "put": 2791,
      "Ġindic": 2792,
      "Ġtraining": 2793,
      "Ġleav": 2794,
      "Ġmovement": 2795,
      "Ġrules": 2796,
      "uth": 2797,
      "Ġmob": 2798,
      "mar": 2799,
      "Ġhands": 2800,
      "12": 2801,
      "Ġgets": 2802,
      "Ġheard": 2803,
      "Ġlooks": 2804,
      "Ġcorre": 2805,
      "ening": 2806,
      "Ġcat": 2807,
      "roll": 2808,
      "Ġimmig": 2809,
      "Ġgrowth": 2810,
      "Ġadvertisement": 2811,
      "Ġchurch": 2812,
      "Ġcalifornia": 2813,
      "Ġkore": 2814,
      "Ġil": 2815,
      "Ġprotest": 2816,
      "Ġjack": 2817,
      "ruction": 2818,
      "Ġfelt": 2819,
      "Ġsett": 2820,
      "ky": 2821,
      "Ġreach": 2822,
      "Ġaugust": 2823,
      "aming": 2824,
      "Ġoctober": 2825,
      "rain": 2826,
      "Ġinvestigation": 2827,
      "Ġallowed": 2828,
      "Ġseven": 2829,
      "face": 2830,
      "Ġhur": 2831,
      "Ġdark": 2832,
      "Ġresour": 2833,
      "Ġrussian": 2834,
      "rown": 2835,
      "Ġprior": 2836,
      "Ġobv": 2837,
      "Ġspokes": 2838,
      "Ġbehav": 2839,
      "rugg": 2840,
      "Ġsummer": 2841,
      "Ġdaily": 2842,
      "Ġconstit": 2843,
      "Ġdemand": 2844,
      "Ġconference": 2845,
      "Ġcrim": 2846,
      "iff": 2847,
      "Ġgrand": 2848,
      "Ġtour": 2849,
      "..": 2850,
      "Ġcommunic": 2851,
      "Ġrelated": 2852,
      "ha": 2853,
      "Ġach": 2854,
      "Ġsepar": 2855,
      "Ġfa": 2856,
      "Ġarm": 2857,
      "Ġfeatures": 2858,
      "Ġham": 2859,
      "Ġsafe": 2860,
      "itted": 2861,
      "Ġincluded": 2862,
      "Ġcause": 2863,
      "Ġens": 2864,
      "Ġtom": 2865,
      "eed": 2866,
      "Ġguy": 2867,
      "ructure": 2868,
      "Ġfix": 2869,
      "Ġregular": 2870,
      "Ġeight": 2871,
      "Ġtried": 2872,
      "Ġuser": 2873,
      "bt": 2874,
      "field": 2875,
      "Ġho": 2876,
      "Ġattention": 2877,
      "atory": 2878,
      "ological": 2879,
      "Ġflo": 2880,
      "Ġgas": 2881,
      "Ġbattle": 2882,
      "Ġcorpor": 2883,
      "Ġsize": 2884,
      "Ġtalking": 2885,
      "Ġtable": 2886,
      "Ġdemon": 2887,
      "Ġtex": 2888,
      "set": 2889,
      "Ġiran": 2890,
      "Ġbott": 2891,
      "Ġbudget": 2892,
      "net": 2893,
      "Ġque": 2894,
      "Ġassist": 2895,
      "Ġcopy": 2896,
      "ground": 2897,
      "Ġbritish": 2898,
      "Ġhear": 2899,
      "Ġjew": 2900,
      "Ġbey": 2901,
      "Ġsaturday": 2902,
      "rem": 2903,
      "uses": 2904,
      "Ġofficers": 2905,
      "Ġpaper": 2906,
      "Ġsat": 2907,
      "ishing": 2908,
      "Ġinteresting": 2909,
      "Ġdonald": 2910,
      "Ġknew": 2911,
      "Ġdoll": 2912,
      "Ġstore": 2913,
      "Ġindia": 2914,
      "gen": 2915,
      "gers": 2916,
      "Ġsystems": 2917,
      "Ġwat": 2918,
      "ibly": 2919,
      "Ġofficer": 2920,
      "Ġbrought": 2921,
      "Ġsusp": 2922,
      "Ġira": 2923,
      "Ġcomments": 2924,
      "Ġquarter": 2925,
      "Ġparents": 2926,
      "estern": 2927,
      "Ġstories": 2928,
      "Ġvarious": 2929,
      "Ġsens": 2930,
      "Ġdecember": 2931,
      "ume": 2932,
      "Ġinstall": 2933,
      "iction": 2934,
      "yl": 2935,
      "hel": 2936,
      "Ġful": 2937,
      "Ġmention": 2938,
      "Ġmovie": 2939,
      "Ġpopulation": 2940,
      "Ġcup": 2941,
      "Ġexpert": 2942,
      "Ġstarting": 2943,
      "Ġblood": 2944,
      "Ġsexual": 2945,
      "Ġmodern": 2946,
      "Ġmajority": 2947,
      "Ġprep": 2948,
      "Ġalle": 2949,
      "undred": 2950,
      "ondon": 2951,
      "Ġaren": 2952,
      "Ġblog": 2953,
      "ession": 2954,
      "Ġ26": 2955,
      "Ġincident": 2956,
      "Ġviolence": 2957,
      "Ġdetails": 2958,
      "Ġdraw": 2959,
      "Ġstrugg": 2960,
      "Ġcritic": 2961,
      "Ġnatural": 2962,
      "Ġ27": 2963,
      "Ġdocument": 2964,
      "Ġremember": 2965,
      "Ġspot": 2966,
      "Ġmart": 2967,
      "Ġregul": 2968,
      "Ġextra": 2969,
      "Ġopportunity": 2970,
      "Ġsafety": 2971,
      "fr": 2972,
      "Ġbiggest": 2973,
      "Ġisland": 2974,
      "Ġroll": 2975,
      "Ġresearc": 2976,
      "Ġrepublicans": 2977,
      "Ġupon": 2978,
      "Ġmessage": 2979,
      "ceed": 2980,
      "sa": 2981,
      "lying": 2982,
      "Ġmount": 2983,
      "Ġcertainly": 2984,
      "Ġexecutive": 2985,
      "Ġcredit": 2986,
      "bed": 2987,
      "Ġachie": 2988,
      "Ġhistor": 2989,
      "Ġlanguage": 2990,
      "ctions": 2991,
      "kes": 2992,
      "Ġ28": 2993,
      "Ġconduct": 2994,
      "Ġapple": 2995,
      "Ġrout": 2996,
      "Ġextreme": 2997,
      "arily": 2998,
      "ucle": 2999,
      "Ġserious": 3000,
      "raz": 3001,
      "Ġhous": 3002,
      "ened": 3003,
      "Ġsurv": 3004,
      "ille": 3005,
      "Ġbeyond": 3006,
      "Ġreading": 3007,
      "oph": 3008,
      "Ġdog": 3009,
      "Ġjoin": 3010,
      "15": 3011,
      "Ġtwe": 3012,
      "Ġcompl": 3013,
      "come": 3014,
      "Ġfreed": 3015,
      "Ġpurp": 3016,
      "Ġenjoy": 3017,
      "Ġincreasing": 3018,
      "Ġvoters": 3019,
      "Ġhundred": 3020,
      "Ġmuslim": 3021,
      "Ġwritten": 3022,
      "ban": 3023,
      "Ġbrown": 3024,
      "Ġstandard": 3025,
      "but": 3026,
      "Ġok": 3027,
      "Ġlay": 3028,
      "Ġeffort": 3029,
      "Ġiraq": 3030,
      "uf": 3031,
      "Ġskill": 3032,
      "Ġclaims": 3033,
      "ida": 3034,
      "Ġfigure": 3035,
      "Ġprevent": 3036,
      "Ġboy": 3037,
      "Ġcommand": 3038,
      "tt": 3039,
      "Ġexcept": 3040,
      "Ġrange": 3041,
      "Ġsort": 3042,
      "Ġexactly": 3043,
      "Ġproducts": 3044,
      "Ġdrive": 3045,
      "Ġlondon": 3046,
      "Ġblue": 3047,
      "Ġfill": 3048,
      "Ġprison": 3049,
      "Ġanswer": 3050,
      "idered": 3051,
      "Ġlevels": 3052,
      "Ġcontinued": 3053,
      "sequ": 3054,
      "Ġkids": 3055,
      "Ġhall": 3056,
      "Ġattacks": 3057,
      "Ġcrow": 3058,
      "Ġrap": 3059,
      "Ġquality": 3060,
      "Ġmichael": 3061,
      "room": 3062,
      "Ġregion": 3063,
      "lebr": 3064,
      "Ġimag": 3065,
      "imately": 3066,
      "Ġstudent": 3067,
      "Ġdro": 3068,
      "Ġcarry": 3069,
      "Ġment": 3070,
      "Ġprime": 3071,
      "Ġepis": 3072,
      "Ġdisp": 3073,
      "Ġchoo": 3074,
      "ani": 3075,
      "iment": 3076,
      "Ġpaid": 3077,
      "Ġtrust": 3078,
      "Ġparticularly": 3079,
      "Ġplatform": 3080,
      "Ġcompletely": 3081,
      "Ġorganization": 3082,
      "Ġattor": 3083,
      "Ġgar": 3084,
      "Ġsmart": 3085,
      "aries": 3086,
      "Ġsoftware": 3087,
      "rend": 3088,
      "Ġgrowing": 3089,
      "Ġdanger": 3090,
      "Ġconsidered": 3091,
      "Ġfile": 3092,
      "coin": 3093,
      "Ġcrime": 3094,
      "Ġconvers": 3095,
      "Ġgra": 3096,
      "Ġready": 3097,
      "Ġremain": 3098,
      "Ġpath": 3099,
      "Ġchair": 3100,
      "ken": 3101,
      "Ġwriting": 3102,
      "Ġgiving": 3103,
      "pper": 3104,
      "Ġmedic": 3105,
      "Ġstuff": 3106,
      "Ġdate": 3107,
      "Ġanalys": 3108,
      "Ġleading": 3109,
      "Ġband": 3110,
      "hold": 3111,
      "Ġpsy": 3112,
      "idge": 3113,
      "Ġcelebr": 3114,
      "Ġpractice": 3115,
      "Ġjer": 3116,
      "Ġjames": 3117,
      "Ġnucle": 3118,
      "Ġpoor": 3119,
      "Ġintelligence": 3120,
      "Ġclean": 3121,
      "Ġjudge": 3122,
      "Ġcosts": 3123,
      "Ġ2008": 3124,
      "entially": 3125,
      "Ġsports": 3126,
      "Ġculture": 3127,
      "Ġdraft": 3128,
      "Ġbrother": 3129,
      "Ġbrand": 3130,
      "ledge": 3131,
      "ago": 3132,
      "eech": 3133,
      "60": 3134,
      "ruary": 3135,
      "!\"": 3136,
      "Ġmac": 3137,
      "they": 3138,
      "Ġpurch": 3139,
      "Ġfan": 3140,
      "Ġ(@": 3141,
      "Ġ60": 3142,
      "Ġguard": 3143,
      "Ġmultiple": 3144,
      "Ġadditional": 3145,
      "Ġthroughout": 3146,
      "Ġwrite": 3147,
      "Ġwonder": 3148,
      "Ġexperien": 3149,
      "Ġcris": 3150,
      "Ġhospital": 3151,
      "Ġlaunch": 3152,
      "akers": 3153,
      "Ġmad": 3154,
      "rast": 3155,
      "Ġarmy": 3156,
      "Ġsenior": 3157,
      "Ġwild": 3158,
      "Ġtexas": 3159,
      "Ġstra": 3160,
      "Ġbul": 3161,
      "Ġdemocrats": 3162,
      "just": 3163,
      "Ġdie": 3164,
      "Ġhappy": 3165,
      "icks": 3166,
      "inese": 3167,
      "Ġremains": 3168,
      "Ġbab": 3169,
      "aught": 3170,
      "Ġchanged": 3171,
      "Ġones": 3172,
      "Ġoverall": 3173,
      "iant": 3174,
      "bar": 3175,
      "Ġreality": 3176,
      "Ġguys": 3177,
      "Ġpresidential": 3178,
      "Ġthousands": 3179,
      "Ġpoll": 3180,
      "Ġ2009": 3181,
      "Ġitem": 3182,
      "Ġthanks": 3183,
      "Ġspeech": 3184,
      "Ġcalls": 3185,
      "Ġwouldn": 3186,
      "Ġsle": 3187,
      "Ġnom": 3188,
      "anced": 3189,
      "Ġfebruary": 3190,
      "Ġparts": 3191,
      "Ġefforts": 3192,
      "isions": 3193,
      "fort": 3194,
      "Ġrequired": 3195,
      "Ġmanager": 3196,
      "Ġshowed": 3197,
      "rit": 3198,
      "Ġfit": 3199,
      "Ġthinking": 3200,
      "lied": 3201,
      "Ġnamed": 3202,
      "Ġrecomm": 3203,
      "ification": 3204,
      "zz": 3205,
      "Ġlaws": 3206,
      "Ġchoice": 3207,
      "phone": 3208,
      "Ġoh": 3209,
      "aker": 3210,
      "ba": 3211,
      "Ġrock": 3212,
      "ension": 3213,
      "Ġfreedom": 3214,
      "utions": 3215,
      "Ġterm": 3216,
      "Ġtouch": 3217,
      "Ġahead": 3218,
      "Ġpropos": 3219,
      "ously": 3220,
      "Ġletter": 3221,
      "Ġusually": 3222,
      "Ġtitle": 3223,
      "Ġbooks": 3224,
      "Ġcounter": 3225,
      "iers": 3226,
      "Ġoption": 3227,
      "ux": 3228,
      "ences": 3229,
      "Ġpun": 3230,
      "Ġid": 3231,
      "Ġdebate": 3232,
      "ford": 3233,
      "Ġstage": 3234,
      "rench": 3235,
      "Ġimplement": 3236,
      "Ġscene": 3237,
      "while": 3238,
      "Ġlooked": 3239,
      "Ġincludes": 3240,
      "Ġprovided": 3241,
      "Ġeventually": 3242,
      "Ġsched": 3243,
      "Ġsecretary": 3244,
      "Ġswe": 3245,
      "Ġchinese": 3246,
      "Ġvill": 3247,
      "Ġgone": 3248,
      "Ġcitizens": 3249,
      "Ġnature": 3250,
      "Ġopin": 3251,
      "Ġorigin": 3252,
      "Ġscreen": 3253,
      "Ġmax": 3254,
      "Ġdied": 3255,
      "Ġnuclear": 3256,
      "Ġimmediately": 3257,
      "Ġcomputer": 3258,
      "Ġcry": 3259,
      "Ġwestern": 3260,
      "Ġpow": 3261,
      "Ġdescribed": 3262,
      "Ġupdate": 3263,
      "Ġalone": 3264,
      "Ġic": 3265,
      "Ġmix": 3266,
      "Ġmaint": 3267,
      "Ġperm": 3268,
      "Ġdamage": 3269,
      "oper": 3270,
      "Ġcomplex": 3271,
      "Ġdesigned": 3272,
      "Ġbow": 3273,
      "Ġmoving": 3274,
      "Ġcool": 3275,
      "Ġfal": 3276,
      "Ġindian": 3277,
      "duce": 3278,
      "round": 3279,
      "Ġ29": 3280,
      "arent": 3281,
      "Ġbrain": 3282,
      "bur": 3283,
      "16": 3284,
      "Ġnar": 3285,
      "Ġwilli": 3286,
      "Ġpiece": 3287,
      "ris": 3288,
      "aur": 3289,
      "rences": 3290,
      "Ġalleged": 3291,
      "Ġanaly": 3292,
      "rel": 3293,
      "Ġoccur": 3294,
      "Ġschools": 3295,
      "Ġwife": 3296,
      "ki": 3297,
      "Ġpeace": 3298,
      "Ġcouldn": 3299,
      "that": 3300,
      "Ġlimited": 3301,
      "using": 3302,
      "Ġreceive": 3303,
      "ev": 3304,
      "Ġautom": 3305,
      "Ġfamil": 3306,
      "Ġdevice": 3307,
      "Ġpressure": 3308,
      "Ġpolitics": 3309,
      "hib": 3310,
      "Ġreform": 3311,
      "Ġstation": 3312,
      "het": 3313,
      "Ġdrop": 3314,
      "Ġcandidate": 3315,
      "Ġtowards": 3316,
      "Ġincreased": 3317,
      "omp": 3318,
      "how": 3319,
      "Ġcontribut": 3320,
      "Ġdirectly": 3321,
      "Ġproperty": 3322,
      "Ġnav": 3323,
      "Ġchallenge": 3324,
      "Ġchampions": 3325,
      "Ġsave": 3326,
      "more": 3327,
      "Ġeth": 3328,
      "Ġphotos": 3329,
      "Ġspending": 3330,
      "Ġconsist": 3331,
      "Ġsales": 3332,
      "Ġlabor": 3333,
      "Ġconservative": 3334,
      "Ġlic": 3335,
      "14": 3336,
      "Ġhelped": 3337,
      "Ġtro": 3338,
      "Ġapparent": 3339,
      "Ġdisplay": 3340,
      "Ġaltern": 3341,
      "Ġresearchers": 3342,
      "ables": 3343,
      "Ġdigital": 3344,
      "Ġsup": 3345,
      "Ġpsych": 3346,
      "Ġdisapp": 3347,
      "Ġprinc": 3348,
      "hest": 3349,
      "astic": 3350,
      "Ġsyria": 3351,
      "Ġaim": 3352,
      "Ġgrad": 3353,
      "Ġarg": 3354,
      "Ġtoward": 3355,
      "iders": 3356,
      "Ġsyn": 3357,
      "aches": 3358,
      "Ġconcept": 3359,
      "Ġprec": 3360,
      "Ġesc": 3361,
      "Ġencour": 3362,
      "Ġfamilies": 3363,
      "Ġlaun": 3364,
      "dr": 3365,
      "Ġapart": 3366,
      "Ġwindows": 3367,
      "Ġfeed": 3368,
      "Ġpassed": 3369,
      "Ġtraff": 3370,
      "Ġcentury": 3371,
      "Ġposted": 3372,
      "Ġnice": 3373,
      "Ġexch": 3374,
      "Ġreasons": 3375,
      "Ġalb": 3376,
      ",'": 3377,
      "Ġangel": 3378,
      "Ġthrow": 3379,
      "berg": 3380,
      "Ġcriminal": 3381,
      "wood": 3382,
      "la": 3383,
      "Ġbeginning": 3384,
      "Ġder": 3385,
      "Ġappears": 3386,
      "Ġsubst": 3387,
      "Ġresources": 3388,
      "Ġenter": 3389,
      "Ġcoal": 3390,
      "Ġbeaut": 3391,
      "Ġhero": 3392,
      "Ġmeaning": 3393,
      "Ġms": 3394,
      "Ġcharacters": 3395,
      "Ġilleg": 3396,
      "Ġlif": 3397,
      "Ġbeat": 3398,
      "box": 3399,
      "Ġfailed": 3400,
      "Ġcompared": 3401,
      "Ġunlike": 3402,
      "ci": 3403,
      "Ġprint": 3404,
      "Ġanalysis": 3405,
      "Ġcustomers": 3406,
      "rupt": 3407,
      "Ġspir": 3408,
      "Ġflor": 3409,
      "Ġgoals": 3410,
      "Ġeffects": 3411,
      "Ġstren": 3412,
      "Ġlen": 3413,
      "Ġice": 3414,
      "Ġfeature": 3415,
      "Ġmoved": 3416,
      "Ġwood": 3417,
      "anch": 3418,
      "Ġcore": 3419,
      "Ġradio": 3420,
      "Ġcrisis": 3421,
      "Ġbitcoin": 3422,
      "craft": 3423,
      "Ġminor": 3424,
      "Ġtrip": 3425,
      "Ġfirm": 3426,
      "Ġtruth": 3427,
      "Ġestim": 3428,
      "atever": 3429,
      "Ġreligious": 3430,
      "wise": 3431,
      "aughter": 3432,
      "99": 3433,
      "Ġpus": 3434,
      "enty": 3435,
      "Ġmyself": 3436,
      "Ġaustralia": 3437,
      "olute": 3438,
      "arian": 3439,
      "rim": 3440,
      "Ġdise": 3441,
      "Ġinsp": 3442,
      "Ġreflect": 3443,
      "17": 3444,
      "Ġshut": 3445,
      "hol": 3446,
      "apt": 3447,
      "venue": 3448,
      "imum": 3449,
      "Ġmist": 3450,
      "Ġincome": 3451,
      "Ġdifference": 3452,
      "Ġrelative": 3453,
      "Ġsigned": 3454,
      "Ġlargest": 3455,
      "ties": 3456,
      "ga": 3457,
      "Ġclearly": 3458,
      "cing": 3459,
      "Ġpreviously": 3460,
      "Ġwel": 3461,
      "Ġpowerful": 3462,
      "Ġpositive": 3463,
      "Ġsend": 3464,
      "resh": 3465,
      "ari": 3466,
      "Ġforced": 3467,
      "13": 3468,
      "Ġattorney": 3469,
      "Ġsources": 3470,
      "adem": 3471,
      "Ġpromot": 3472,
      "Ġindependent": 3473,
      "agon": 3474,
      "ufact": 3475,
      "ram": 3476,
      "men": 3477,
      "Ġcontinues": 3478,
      "Ġpolitic": 3479,
      "Ġbay": 3480,
      "Ġconditions": 3481,
      "Ġstudies": 3482,
      "Ġprojects": 3483,
      "Ġweapons": 3484,
      "Ġprosec": 3485,
      "Ġrule": 3486,
      "Ġavoid": 3487,
      "Ġeye": 3488,
      "Ġyourself": 3489,
      "chan": 3490,
      "Ġbenefits": 3491,
      "Ġod": 3492,
      "Ġbloc": 3493,
      "Ġfrench": 3494,
      "Ġmexic": 3495,
      "Ġmanagement": 3496,
      "18": 3497,
      "Ġauthorities": 3498,
      "Ġrecords": 3499,
      "Ġvirt": 3500,
      "Ġnort": 3501,
      "Ġdeg": 3502,
      "erve": 3503,
      "Ġsmith": 3504,
      ");": 3505,
      "Ġallows": 3506,
      "Ġphotograp": 3507,
      "Ġthus": 3508,
      "Ġimpress": 3509,
      "Ġdecades": 3510,
      "see": 3511,
      "Ġadding": 3512,
      "Ġphysical": 3513,
      "Ġrefer": 3514,
      "icient": 3515,
      "Ġinsur": 3516,
      "Ġmeant": 3517,
      "Ġdetail": 3518,
      "Ġcharge": 3519,
      "Ġrare": 3520,
      "Ġpros": 3521,
      "Ġmanufact": 3522,
      "Ġflow": 3523,
      "Ġunique": 3524,
      "Ġwait": 3525,
      "isc": 3526,
      "cell": 3527,
      "Ġtelev": 3528,
      "Ġshooting": 3529,
      "Ġactions": 3530,
      "board": 3531,
      "band": 3532,
      "Ġthank": 3533,
      "Ġeasily": 3534,
      "ville": 3535,
      "Ġenglish": 3536,
      "well": 3537,
      "inary": 3538,
      "Ġgives": 3539,
      "Ġcities": 3540,
      "Ġassociated": 3541,
      "Ġwhatever": 3542,
      "Ġtreatment": 3543,
      "reed": 3544,
      "Ġeyes": 3545,
      "Ġsea": 3546,
      "Ġrub": 3547,
      "arm": 3548,
      "ero": 3549,
      "Ġborder": 3550,
      "inated": 3551,
      "Ġry": 3552,
      "iring": 3553,
      "Ġexpand": 3554,
      "Ġfighting": 3555,
      "25": 3556,
      "Ġfine": 3557,
      "Ġele": 3558,
      "Ġassociation": 3559,
      "Ġideas": 3560,
      "Ġrise": 3561,
      "Ġstraight": 3562,
      "Ġprofessor": 3563,
      "Ġii": 3564,
      "Ġsubsc": 3565,
      "Ġacadem": 3566,
      "Ġmap": 3567,
      "Ġsout": 3568,
      "Ġsho": 3569,
      "Ġfox": 3570,
      "Ġfat": 3571,
      "Ġrand": 3572,
      "Ġund": 3573,
      "Ġgeorge": 3574,
      "Ġagreement": 3575,
      "Ġcru": 3576,
      "Ġmarri": 3577,
      "Ġmission": 3578,
      "Ġdut": 3579,
      "aint": 3580,
      "Ġvoice": 3581,
      "Ġgreater": 3582,
      "ta": 3583,
      "Ġhen": 3584,
      "Ġshown": 3585,
      "Ġshar": 3586,
      "Ġpicture": 3587,
      "Ġpredict": 3588,
      "Ġintegr": 3589,
      "encies": 3590,
      "Ġprimary": 3591,
      "Ġgirl": 3592,
      "Ġemployees": 3593,
      "Ġnecessary": 3594,
      "Ġreduc": 3595,
      "Ġpartners": 3596,
      "Ġoptions": 3597,
      "uk": 3598,
      "Ġweight": 3599,
      "Ġscott": 3600,
      "itely": 3601,
      "aling": 3602,
      "Ġconflic": 3603,
      "Ġremo": 3604,
      "Ġweekend": 3605,
      "Ġowners": 3606,
      "Ġuses": 3607,
      "Ġappeared": 3608,
      "oti": 3609,
      "Ġfollowed": 3610,
      "aph": 3611,
      "Ġcalling": 3612,
      "Ġplant": 3613,
      "Ġprices": 3614,
      "Ġdoor": 3615,
      "nov": 3616,
      "Ġrates": 3617,
      "Ġchic": 3618,
      "Ġenforce": 3619,
      "Ġken": 3620,
      "Ġhillary": 3621,
      "Ġtraffic": 3622,
      "Ġmcc": 3623,
      "Ġspread": 3624,
      "Ġmobile": 3625,
      "Ġnoted": 3626,
      "Ġclick": 3627,
      "cont": 3628,
      "Ġmeasure": 3629,
      "Ġfrequ": 3630,
      "Ġfully": 3631,
      "Ġkick": 3632,
      "rant": 3633,
      "Ġtick": 3634,
      "Ġprograms": 3635,
      "Ġjump": 3636,
      "Ġadvant": 3637,
      "Ġdestro": 3638,
      "Ġlines": 3639,
      "ota": 3640,
      "Ġscen": 3641,
      "Ġfunding": 3642,
      "Ġsuccessful": 3643,
      "Ġbasic": 3644,
      "mo": 3645,
      "Ġgermany": 3646,
      "Ġorganiz": 3647,
      "sey": 3648,
      "Ġattract": 3649,
      "iny": 3650,
      "Ġhaven": 3651,
      "Ġplaces": 3652,
      "orter": 3653,
      "Ġalex": 3654,
      "Ġfort": 3655,
      "Ġcreating": 3656,
      "Ġspend": 3657,
      "Ġstatus": 3658,
      "Ġpull": 3659,
      "Ġqual": 3660,
      "vin": 3661,
      "Ġhighly": 3662,
      "Ġfoundation": 3663,
      "Ġtransport": 3664,
      "ato": 3665,
      "Ġarab": 3666,
      "Ġpush": 3667,
      "Ġseeing": 3668,
      "oul": 3669,
      "ado": 3670,
      "Ġabsolute": 3671,
      "Ġhun": 3672,
      "Ġamb": 3673,
      "Ġfavorite": 3674,
      "Ġcharges": 3675,
      "Ġsam": 3676,
      "Ġfemale": 3677,
      "bon": 3678,
      "Ġlarger": 3679,
      "uana": 3680,
      "Ġwit": 3681,
      "Ġindividuals": 3682,
      "Ġliter": 3683,
      "Ġlou": 3684,
      "Ġdeveloped": 3685,
      "Ġvan": 3686,
      "nn": 3687,
      "Ġneighbor": 3688,
      "Ġknows": 3689,
      "Ġflorida": 3690,
      "Ġwil": 3691,
      "yal": 3692,
      "Ġcorrect": 3693,
      "Ġlawy": 3694,
      "onents": 3695,
      "Ġmel": 3696,
      "Ġconcerns": 3697,
      "Ġconstitution": 3698,
      "Ġreached": 3699,
      "Ġvac": 3700,
      "Ġtrou": 3701,
      "wide": 3702,
      "Ġdownload": 3703,
      "Ġord": 3704,
      "Ġcars": 3705,
      "Ġchristian": 3706,
      "Ġgrant": 3707,
      "Ġemot": 3708,
      "iles": 3709,
      "Ġfranc": 3710,
      "Ġresidents": 3711,
      "ext": 3712,
      "ivity": 3713,
      "Ġtraditional": 3714,
      "Ġflight": 3715,
      "Ġeditor": 3716,
      "dom": 3717,
      "Ġalbum": 3718,
      "ijuana": 3719,
      "Ġnormal": 3720,
      "Ġbirth": 3721,
      "Ġchann": 3722,
      "Ġspeaking": 3723,
      "don": 3724,
      "Ġscientists": 3725,
      "Ġopposition": 3726,
      "40": 3727,
      "ope": 3728,
      "Ġelectric": 3729,
      "Ġwilling": 3730,
      "term": 3731,
      "Ġsection": 3732,
      "Ġadvoc": 3733,
      "cul": 3734,
      "Ġrefe": 3735,
      "ropri": 3736,
      "Ġchoose": 3737,
      "ube": 3738,
      "Ġhack": 3739,
      "Ġload": 3740,
      "Ġpolicies": 3741,
      "hi": 3742,
      "Ġaffect": 3743,
      "alled": 3744,
      "Ġknowledge": 3745,
      "Ġintroduc": 3746,
      "ented": 3747,
      "Ġhappens": 3748,
      "Ġassault": 3749,
      "Ġgal": 3750,
      "Ġclaimed": 3751,
      "Ġfant": 3752,
      "Ġwalk": 3753,
      "Ġteac": 3754,
      "Ġkept": 3755,
      "Ġfeet": 3756,
      "Ġstrategy": 3757,
      "Ġleaving": 3758,
      "ortion": 3759,
      "Ġoperations": 3760,
      "Ġstyle": 3761,
      "Ġ35": 3762,
      "Ġdetermin": 3763,
      "Ġadult": 3764,
      "Ġbush": 3765,
      "Ġengland": 3766,
      "Ġbrief": 3767,
      "Ġgay": 3768,
      "rs": 3769,
      "gy": 3770,
      "Ġnames": 3771,
      "Ġended": 3772,
      "Ġnotes": 3773,
      "Ġaward": 3774,
      "Ġchicago": 3775,
      "Ġraised": 3776,
      "Ġapplication": 3777,
      "Ġensure": 3778,
      "Ġseemed": 3779,
      "Ġinvestment": 3780,
      "Ġhus": 3781,
      "Ġnine": 3782,
      "ste": 3783,
      "Ġcrowd": 3784,
      "Ġtelevision": 3785,
      "Ġdevices": 3786,
      "Ġactivity": 3787,
      "da": 3788,
      "Ġarrested": 3789,
      "Ġindeed": 3790,
      "Ġpul": 3791,
      "Ġmike": 3792,
      "Ġbeg": 3793,
      "Ġmostly": 3794,
      "Ġcaused": 3795,
      "Ġfrank": 3796,
      "ares": 3797,
      "Ġmassive": 3798,
      "iced": 3799,
      "Ġdouble": 3800,
      "han": 3801,
      "Ġtrain": 3802,
      "Ġlibr": 3803,
      "Ġsupposed": 3804,
      "point": 3805,
      "nel": 3806,
      "Ġpatients": 3807,
      "Ġacqu": 3808,
      "ara": 3809,
      "Ġchem": 3810,
      "ady": 3811,
      "rency": 3812,
      "Ġsad": 3813,
      "Ġhundreds": 3814,
      "Ġmarijuana": 3815,
      "Ġlearning": 3816,
      "soft": 3817,
      "Ġsanders": 3818,
      "Ġdebt": 3819,
      "dered": 3820,
      "Ġdefend": 3821,
      "Ġ196": 3822,
      "Ġenem": 3823,
      "Ġkid": 3824,
      "when": 3825,
      "Ġslight": 3826,
      "Ġrevealed": 3827,
      "Ġnegoti": 3828,
      "roid": 3829,
      "Ġstock": 3830,
      "Ġopening": 3831,
      "Ġnone": 3832,
      "Ġsamp": 3833,
      "Ġmiles": 3834,
      "Ġec": 3835,
      "ona": 3836,
      "Ġ80": 3837,
      "Ġheavy": 3838,
      "Ġasking": 3839,
      "pects": 3840,
      "Ġafford": 3841,
      "Ġactual": 3842,
      "Ġconfirmed": 3843,
      "Ġbed": 3844,
      "Ġrat": 3845,
      "Ġoffered": 3846,
      "Ġbag": 3847,
      "part": 3848,
      "Ġfarm": 3849,
      "Ġepisode": 3850,
      "Ġcritical": 3851,
      "Ġflag": 3852,
      "ca": 3853,
      "Ġfif": 3854,
      "antly": 3855,
      "Ġspring": 3856,
      "Ġobser": 3857,
      "Ġriver": 3858,
      "Ġcontroll": 3859,
      "Ġparties": 3860,
      "aly": 3861,
      "Ġmillions": 3862,
      "Ġworse": 3863,
      "Ġmarriage": 3864,
      "Ġjohnson": 3865,
      "usion": 3866,
      "Ġcommit": 3867,
      "Ġmechan": 3868,
      "Ġcoast": 3869,
      "Ġplus": 3870,
      "Ġadop": 3871,
      "onent": 3872,
      "Ġlose": 3873,
      "Ġmachine": 3874,
      "Ġdemonstr": 3875,
      "Ġprofessional": 3876,
      "Ġprotection": 3877,
      "ounds": 3878,
      "Ġfresh": 3879,
      "iful": 3880,
      "Ġruns": 3881,
      "Ġkorea": 3882,
      "Ġlearned": 3883,
      "Ġborn": 3884,
      "Ġcamera": 3885,
      "ipe": 3886,
      "Ġfrance": 3887,
      "Ġfeeling": 3888,
      "Ġtrib": 3889,
      "tw": 3890,
      "uters": 3891,
      "Ġbehavior": 3892,
      "istry": 3893,
      "Ġfrancis": 3894,
      "Ġ31": 3895,
      "Ġsud": 3896,
      "Ġshowing": 3897,
      "Ġcash": 3898,
      "Ġsolution": 3899,
      "Ġannounce": 3900,
      "Ġlocation": 3901,
      "Ġcommerc": 3902,
      "Ġtemper": 3903,
      "80": 3904,
      "Ġsleep": 3905,
      "Ġlimit": 3906,
      "Ġreplace": 3907,
      "Ġnations": 3908,
      "Ġveter": 3909,
      "Ġdollars": 3910,
      "iled": 3911,
      "rants": 3912,
      "Ġdu": 3913,
      "Ġnfl": 3914,
      "Ġ2007": 3915,
      "hs": 3916,
      "ros": 3917,
      "Ġmale": 3918,
      "Ġspl": 3919,
      "with": 3920,
      "vere": 3921,
      "Ġsupporters": 3922,
      "Ġnotice": 3923,
      "Ġign": 3924,
      "Ġbenefit": 3925,
      "Ġparli": 3926,
      "Ġbomb": 3927,
      "Ġinterested": 3928,
      "estic": 3929,
      "Ġoffers": 3930,
      "rep": 3931,
      "Ġexam": 3932,
      "any": 3933,
      "Ġroc": 3934,
      "Ġsolid": 3935,
      "Ġfly": 3936,
      "Ġscore": 3937,
      "pm": 3938,
      "Ġjun": 3939,
      "ding": 3940,
      "Ġ32": 3941,
      "aked": 3942,
      "Ġreact": 3943,
      "Ġbelieved": 3944,
      "Ġinstitute": 3945,
      "Ġvs": 3946,
      "Ġchris": 3947,
      "Ġopinion": 3948,
      "Ġvalues": 3949,
      "Ġgop": 3950,
      "Ġbottom": 3951,
      "Ġlegislation": 3952,
      "Ġvictory": 3953,
      "lant": 3954,
      "Ġsubm": 3955,
      "coming": 3956,
      "Ġparliament": 3957,
      "cher": 3958,
      "Ġtrial": 3959,
      "Ġprovides": 3960,
      "Ġwinning": 3961,
      "ribution": 3962,
      "Ġrestaur": 3963,
      "Ġda": 3964,
      "duction": 3965,
      "Ġship": 3966,
      "wing": 3967,
      "Ġenvironmental": 3968,
      "Ġresponsible": 3969,
      "Ġincred": 3970,
      "sen": 3971,
      "Ġcontrovers": 3972,
      "Ġillegal": 3973,
      "itor": 3974,
      "Ġjoined": 3975,
      "Ġiniti": 3976,
      "Ġgri": 3977,
      "airs": 3978,
      "Ġtend": 3979,
      "Ġhighest": 3980,
      "bre": 3981,
      "Ġcentre": 3982,
      "Ġcards": 3983,
      "Ġtweet": 3984,
      "Ġvari": 3985,
      "house": 3986,
      "Ġcondition": 3987,
      "uit": 3988,
      "Ġ90": 3989,
      "ipl": 3990,
      "Ġaccused": 3991,
      "Ġpalest": 3992,
      "Ġfle": 3993,
      "Ġleadership": 3994,
      "Ġmemory": 3995,
      "Ġeffective": 3996,
      "Ġwatching": 3997,
      "Ġputting": 3998,
      "Ġmig": 3999,
      "Ġsnow": 4000,
      "hicle": 4001,
      "itz": 4002,
      "Ġrestrict": 4003,
      "Ġsport": 4004,
      "Ġinsurance": 4005,
      "Ġframe": 4006,
      "Ġwis": 4007,
      "Ġmir": 4008,
      "Ġunit": 4009,
      "Ġfaith": 4010,
      "Ġagreed": 4011,
      "Ġproposed": 4012,
      "Ġtherefore": 4013,
      "itude": 4014,
      "Ġhell": 4015,
      "Ġdocuments": 4016,
      "Ġcoverage": 4017,
      "Ġoccas": 4018,
      "Ġproduce": 4019,
      "Ġachieve": 4020,
      "Ġactive": 4021,
      "Ġast": 4022,
      "Ġburn": 4023,
      "inger": 4024,
      "icking": 4025,
      "Ġestabl": 4026,
      "know": 4027,
      "Ġproduced": 4028,
      "Ġdin": 4029,
      "Ġvictims": 4030,
      "Ġbanks": 4031,
      "Ġcas": 4032,
      "abor": 4033,
      "Ġinfluence": 4034,
      "Ġcompetition": 4035,
      "Ġdriver": 4036,
      "Ġenforcement": 4037,
      "Ġwhom": 4038,
      "Ġtypes": 4039,
      "Ġoccup": 4040,
      "Ġfourth": 4041,
      "Ġpu": 4042,
      "Ġexplained": 4043,
      "Ġdefinitely": 4044,
      "Ġpm": 4045,
      "Ġ;": 4046,
      "Ġgenerally": 4047,
      "mine": 4048,
      "gar": 4049,
      "Ġcanadian": 4050,
      "Ġbackground": 4051,
      "Ġannual": 4052,
      "Ġhousing": 4053,
      "Ġresist": 4054,
      "Ġsurvey": 4055,
      "Ġing": 4056,
      "Ġhearing": 4057,
      "Ġdefe": 4058,
      "Ġ70": 4059,
      "Ġinitial": 4060,
      "Ġhighlight": 4061,
      "Ġvehicle": 4062,
      "Ġgirls": 4063,
      "Ġcommunities": 4064,
      "Ġadvantage": 4065,
      "Ġmayor": 4066,
      "Ġexchange": 4067,
      "Ġgeneration": 4068,
      "):": 4069,
      "Ġeasier": 4070,
      "Ġunderstanding": 4071,
      "Ġrevolution": 4072,
      "Ġserve": 4073,
      "Ġos": 4074,
      "Ġworst": 4075,
      "Ġauthority": 4076,
      "Ġrefuge": 4077,
      "Ġluck": 4078,
      "Ġtele": 4079,
      "Ġcommercial": 4080,
      "Ġislamic": 4081,
      "Ġshared": 4082,
      "Ġliberal": 4083,
      "Ġwitness": 4084,
      "Ġconvention": 4085,
      "Ġsurround": 4086,
      "Ġplanned": 4087,
      "Ġreject": 4088,
      "Ġmaster": 4089,
      "Ġbecoming": 4090,
      "Ġalleg": 4091,
      "Ġetc": 4092,
      "Ġwealth": 4093,
      "uries": 4094,
      "Ġcaption": 4095,
      "Ġcomfort": 4096,
      "Ġdrugs": 4097,
      "Ġbeer": 4098,
      "Ġsurface": 4099,
      "Ġpattern": 4100,
      "Ġfinding": 4101,
      "Ġassum": 4102,
      "ami": 4103,
      "Ġaudience": 4104,
      "Ġheat": 4105,
      "Ġdisease": 4106,
      "ica": 4107,
      "hem": 4108,
      "Ġdangerous": 4109,
      "Ġjones": 4110,
      "Ġdream": 4111,
      "Ġsky": 4112,
      "Ġplanning": 4113,
      "za": 4114,
      "Ġlaunched": 4115,
      "Ġpac": 4116,
      "Ġopened": 4117,
      "Ġonto": 4118,
      "Ġobs": 4119,
      "Ġplanet": 4120,
      "Ġoperation": 4121,
      "Ġdoz": 4122,
      "Ġcarol": 4123,
      "Ġdriving": 4124,
      "Ġsupreme": 4125,
      "Ġath": 4126,
      "Ġtools": 4127,
      "works": 4128,
      "Ġreduce": 4129,
      "Ġimmigration": 4130,
      "Ġgall": 4131,
      "Ġviews": 4132,
      "Ġteach": 4133,
      "Ġtheory": 4134,
      "Ġextremely": 4135,
      "Ġamazing": 4136,
      "going": 4137,
      "Ġdestroy": 4138,
      "eth": 4139,
      "Ġbusinesses": 4140,
      "Ġmicrosoft": 4141,
      "Ġcandidates": 4142,
      "eline": 4143,
      "Ġcancer": 4144,
      "Ġconstruction": 4145,
      "Ġcooper": 4146,
      "Ġjim": 4147,
      "Ġdism": 4148,
      "ghan": 4149,
      "known": 4150,
      "Ġsites": 4151,
      "Ġsolar": 4152,
      "200": 4153,
      "Ġexisting": 4154,
      "Ġspokesman": 4155,
      "Ġtesting": 4156,
      "Ġserved": 4157,
      "Ġ500": 4158,
      "Ġded": 4159,
      "Ġfbi": 4160,
      "Ġtransfer": 4161,
      "Ġcharged": 4162,
      "Ġcook": 4163,
      "Ġdoubt": 4164,
      "Ġcold": 4165,
      "Ġmagaz": 4166,
      "Ġsquare": 4167,
      "aks": 4168,
      "Ġspecies": 4169,
      "Ġthom": 4170,
      "Ġcopyright": 4171,
      "Ġbasis": 4172,
      "Ġrobert": 4173,
      "Ġstor": 4174,
      "Ġram": 4175,
      "Ġbecomes": 4176,
      "Ġryan": 4177,
      "Ġfalse": 4178,
      "Ġfuel": 4179,
      "Ġdecade": 4180,
      "Ġspirit": 4181,
      "Ġobt": 4182,
      "enn": 4183,
      "Ġandroid": 4184,
      "Ġissued": 4185,
      "Ġrid": 4186,
      "win": 4187,
      "Ġfigh": 4188,
      "Ġlabour": 4189,
      "Ġfloor": 4190,
      "Ġpil": 4191,
      "can": 4192,
      "olic": 4193,
      "Ġnegative": 4194,
      "Ġitems": 4195,
      "Ġrough": 4196,
      "ressed": 4197,
      "Ġjeff": 4198,
      "Ġimagine": 4199,
      "Ġju": 4200,
      "Ġbritain": 4201,
      "Ġmeanwhile": 4202,
      "Ġcateg": 4203,
      "ription": 4204,
      "Ġtelling": 4205,
      "Ġeat": 4206,
      "Ġvice": 4207,
      "Ġip": 4208,
      "Ġukrain": 4209,
      "Ġplays": 4210,
      "Ġclosed": 4211,
      "Ġexplain": 4212,
      "Ġapparently": 4213,
      "met": 4214,
      "Ġgovernor": 4215,
      "Ġoffensive": 4216,
      "Ġpak": 4217,
      "Ġsouthern": 4218,
      "Ġcontain": 4219,
      "Ġcatch": 4220,
      "onic": 4221,
      "Ġtrail": 4222,
      "Ġmurder": 4223,
      "igned": 4224,
      "Ġdaughter": 4225,
      "Ġraise": 4226,
      "Ġdat": 4227,
      "Ġunfortun": 4228,
      "Ġanimals": 4229,
      "Ġattend": 4230,
      "ression": 4231,
      "cons": 4232,
      "Ġnorthern": 4233,
      "ustr": 4234,
      "Ġspoke": 4235,
      "dy": 4236,
      "Ġconcerned": 4237,
      "Ġsubscrib": 4238,
      "Ġbelief": 4239,
      "season": 4240,
      "Ġpurpose": 4241,
      "Ġspect": 4242,
      "Ġcontinu": 4243,
      "Ġvirgin": 4244,
      "Ġseparate": 4245,
      "Ġrepeated": 4246,
      "ada": 4247,
      "Ġserver": 4248,
      "Ġconsequ": 4249,
      "Ġbelieves": 4250,
      "ka": 4251,
      "Ġotherwise": 4252,
      "Ġchampionship": 4253,
      "Ġexperiment": 4254,
      "iliar": 4255,
      "atically": 4256,
      "Ġbon": 4257,
      "Ġsmaller": 4258,
      "Ġsuggested": 4259,
      "bing": 4260,
      "Ġamend": 4261,
      "Ġstrength": 4262,
      "racy": 4263,
      "Ġentertain": 4264,
      "Ġdetect": 4265,
      "ario": 4266,
      "Ġdomin": 4267,
      "Ġisraeli": 4268,
      "Ġcrew": 4269,
      "ple": 4270,
      "Ġdefensive": 4271,
      "hl": 4272,
      "resp": 4273,
      "Ġallowing": 4274,
      "Ġdirection": 4275,
      "Ġhomes": 4276,
      "Ġhasn": 4277,
      "ctors": 4278,
      "Ġfer": 4279,
      "Ġcollection": 4280,
      "Ġultimately": 4281,
      "Ġnovel": 4282,
      "Ġreturned": 4283,
      "Ġinstance": 4284,
      "ios": 4285,
      "Ġanc": 4286,
      "Ġcho": 4287,
      "Ġcab": 4288,
      "Ġfest": 4289,
      "aud": 4290,
      "Ġinjury": 4291,
      "Ġholding": 4292,
      "Ġmissing": 4293,
      "Ġdeliver": 4294,
      "Ġbeautiful": 4295,
      "Ġabuse": 4296,
      "Ġtruly": 4297,
      "Ġcaught": 4298,
      "Ġexerc": 4299,
      "Ġstrike": 4300,
      "des": 4301,
      "Ġdiscovered": 4302,
      "Ġton": 4303,
      "Ġkeeping": 4304,
      "Ġolder": 4305,
      "Ġstars": 4306,
      "Ġexclus": 4307,
      "Ġmand": 4308,
      "Ġargument": 4309,
      "onto": 4310,
      "Ġconcern": 4311,
      "Ġrecommend": 4312,
      "Ġinn": 4313,
      "Ġgam": 4314,
      "Ġafghan": 4315,
      "22": 4316,
      "Ġ45": 4317,
      "Ġwaiting": 4318,
      "Ġchec": 4319,
      "Ġdecisions": 4320,
      "Ġze": 4321,
      "Ġcompar": 4322,
      "Ġna": 4323,
      "Ġscale": 4324,
      "irt": 4325,
      "Ġadvis": 4326,
      "Ġtough": 4327,
      "oon": 4328,
      "acity": 4329,
      "Ġobviously": 4330,
      "Ġangeles": 4331,
      "Ġaware": 4332,
      "Ġtransl": 4333,
      "kins": 4334,
      "Ġjoe": 4335,
      "Ġguess": 4336,
      "Ġinnov": 4337,
      "Ġwars": 4338,
      "Ġhair": 4339,
      "istics": 4340,
      "Ġsupported": 4341,
      "Ġdivision": 4342,
      "Ġchap": 4343,
      "Ġentirely": 4344,
      "Ġmartin": 4345,
      "Ġera": 4346,
      "Ġhate": 4347,
      "Ġowner": 4348,
      "Ġnewsp": 4349,
      "Ġrequires": 4350,
      "--": 4351,
      "suit": 4352,
      "ike": 4353,
      "Ġaccur": 4354,
      "Ġsetting": 4355,
      "Ġbatter": 4356,
      "ifying": 4357,
      "Ġestablish": 4358,
      "Ġconversation": 4359,
      "Ġfigures": 4360,
      "rial": 4361,
      "Ġactivities": 4362,
      "Ġlargely": 4363,
      "Ġpakistan": 4364,
      "wr": 4365,
      "'.": 4366,
      "itation": 4367,
      "Ġproviding": 4368,
      "igan": 4369,
      "Ġfiles": 4370,
      "bour": 4371,
      "she": 4372,
      "ola": 4373,
      "Ġstructure": 4374,
      "Ġrichard": 4375,
      "war": 4376,
      "Ġgender": 4377,
      "Ġcorner": 4378,
      "Ġregist": 4379,
      "Ġpartner": 4380,
      "Ġye": 4381,
      "Ġ2006": 4382,
      "Ġstanding": 4383,
      "',": 4384,
      "Ġexperts": 4385,
      "oted": 4386,
      "Ġfunds": 4387,
      "Ġalternative": 4388,
      "Ġasse": 4389,
      "Ġanimal": 4390,
      "Ġsuit": 4391,
      "Ġtransform": 4392,
      "mas": 4393,
      "gl": 4394,
      "Ġtun": 4395,
      "Ġtow": 4396,
      "Ġprosecut": 4397,
      "Ġconflict": 4398,
      "Ġsher": 4399,
      "Ġtells": 4400,
      "Ġtalks": 4401,
      "Ġbaby": 4402,
      "Ġdiscussion": 4403,
      "Ġsust": 4404,
      "Ġpit": 4405,
      "issions": 4406,
      "Ġsav": 4407,
      "Ġvo": 4408,
      "Ġfiled": 4409,
      "Ġrus": 4410,
      "Ġassess": 4411,
      "rom": 4412,
      "olf": 4413,
      "Ġlouis": 4414,
      "Ġacknow": 4415,
      "rative": 4416,
      "Ġprincip": 4417,
      "Ġunless": 4418,
      "Ġpc": 4419,
      "Ġstated": 4420,
      "Ġtask": 4421,
      "Ġsequ": 4422,
      "icip": 4423,
      "Ġafrican": 4424,
      "Ġskills": 4425,
      "Ġlisten": 4426,
      "Ġdevelopers": 4427,
      "izes": 4428,
      "Ġlength": 4429,
      "24": 4430,
      "inct": 4431,
      "Ġnas": 4432,
      "Ġmexico": 4433,
      "Ġharm": 4434,
      "Ġpalestin": 4435,
      "Ġidentity": 4436,
      "Ġafrica": 4437,
      "Ġdomestic": 4438,
      "acing": 4439,
      "Ġbern": 4440,
      "osh": 4441,
      "Ġgain": 4442,
      "Ġvul": 4443,
      "Ġdyn": 4444,
      "prof": 4445,
      "Ġpair": 4446,
      "Ġsac": 4447,
      "Ġgree": 4448,
      "Ġfeels": 4449,
      "Ġremoved": 4450,
      "Ġsteps": 4451,
      "equ": 4452,
      "Ġtaxes": 4453,
      "Ġfellow": 4454,
      "Ġhonest": 4455,
      "Ġkilling": 4456,
      "Ġstandards": 4457,
      "Ġmarkets": 4458,
      "Ġdoctor": 4459,
      "Ġscript": 4460,
      "fc": 4461,
      "real": 4462,
      "ho": 4463,
      "run": 4464,
      "Ġjon": 4465,
      "Ġsudden": 4466,
      "Ġmeasures": 4467,
      "Ġcontext": 4468,
      "lies": 4469,
      "Ġfocused": 4470,
      "Ġtack": 4471,
      "ya": 4472,
      "Ġbigger": 4473,
      "iling": 4474,
      "Ġvideos": 4475,
      "Ġglass": 4476,
      "Ġpy": 4477,
      "Ġpresence": 4478,
      "Ġcommitted": 4479,
      "Ġintroduced": 4480,
      "Ġfinished": 4481,
      "tered": 4482,
      "Ġmental": 4483,
      "ancy": 4484,
      "Ġstopped": 4485,
      "Ġty": 4486,
      "ivers": 4487,
      "ae": 4488,
      "Ġari": 4489,
      "Ġjewish": 4490,
      "Ġteen": 4491,
      "ulated": 4492,
      "Ġprefer": 4493,
      "Ġconnection": 4494,
      "onym": 4495,
      "Ġmanaged": 4496,
      "Ġtoronto": 4497,
      "Ġobvious": 4498,
      "Ġvotes": 4499,
      "Ġthomas": 4500,
      "outs": 4501,
      "Ġexplo": 4502,
      "45": 4503,
      "Ġsupply": 4504,
      "Ġceo": 4505,
      "Ġscientific": 4506,
      "Ġinterests": 4507,
      "Ġplaced": 4508,
      "Ġamazon": 4509,
      "Ġwriter": 4510,
      "Ġabsolutely": 4511,
      "Ġappropri": 4512,
      "Ġsenator": 4513,
      "Ġhelping": 4514,
      "Ġtechni": 4515,
      "Ġcuts": 4516,
      "Ġprivacy": 4517,
      "Ġskin": 4518,
      "pective": 4519,
      "Ġhyp": 4520,
      "oto": 4521,
      "Ġcorporate": 4522,
      "Ġlu": 4523,
      "Ġneighborhood": 4524,
      "lor": 4525,
      "hal": 4526,
      "Ġjose": 4527,
      "Ġhusband": 4528,
      "Ġmodels": 4529,
      "Ġgard": 4530,
      "Ġinteract": 4531,
      "Ġsounds": 4532,
      "Ġfo": 4533,
      "hand": 4534,
      "ula": 4535,
      "Ġturns": 4536,
      "Ġelections": 4537,
      "Ġsyrian": 4538,
      "Ġstad": 4539,
      "arant": 4540,
      "Ġsale": 4541,
      "Ġmary": 4542,
      "Ġmentioned": 4543,
      "Ġvision": 4544,
      "osure": 4545,
      "Ġwish": 4546,
      "Ġimposs": 4547,
      "gs": 4548,
      "Ġaccident": 4549,
      "town": 4550,
      "Ġfailure": 4551,
      "Ġoce": 4552,
      "Ġuseful": 4553,
      "Ġbid": 4554,
      "isation": 4555,
      "Ġlob": 4556,
      "rees": 4557,
      "Ġpeter": 4558,
      "Ġidentified": 4559,
      "Ġbrow": 4560,
      "Ġaggress": 4561,
      "Ġorganizations": 4562,
      "Ġconclus": 4563,
      "Ġyouth": 4564,
      "Ġwindow": 4565,
      "lig": 4566,
      "stream": 4567,
      "Ġarrived": 4568,
      "Ġstarts": 4569,
      "umn": 4570,
      "Ġearn": 4571,
      "Ġsides": 4572,
      "Ġhappening": 4573,
      "Ġclot": 4574,
      "Ġ33": 4575,
      "kin": 4576,
      "Ġmotor": 4577,
      "ayer": 4578,
      "Ġoriginally": 4579,
      "elling": 4580,
      "Ġjail": 4581,
      "Ġchanging": 4582,
      "Ġrain": 4583,
      "Ġgh": 4584,
      "Ġjapanese": 4585,
      "Ġoperating": 4586,
      "Ġweak": 4587,
      "ipp": 4588,
      "Ġbod": 4589,
      "Ġspecifically": 4590,
      "Ġtourn": 4591,
      "Ġconsult": 4592,
      "Ġterrit": 4593,
      "Ġconclud": 4594,
      "Ġdecide": 4595,
      "Ġslightly": 4596,
      "Ġtests": 4597,
      "Ġatlant": 4598,
      "oses": 4599,
      "Ġnic": 4600,
      "Ġtast": 4601,
      "Ġven": 4602,
      "Ġoptim": 4603,
      "Ġchairman": 4604,
      "Ġschedul": 4605,
      "enses": 4606,
      "Ġbalance": 4607,
      "Ġlibrary": 4608,
      "anging": 4609,
      "Ġbond": 4610,
      "Ġlosing": 4611,
      "Ġvariety": 4612,
      "Ġcart": 4613,
      "Ġseek": 4614,
      "Ġfamiliar": 4615,
      "Ġchannel": 4616,
      "Ġlas": 4617,
      "Ġhealthy": 4618,
      "Ġcann": 4619,
      "Ġmatt": 4620,
      "Ġ2018": 4621,
      "word": 4622,
      "70": 4623,
      "Ġmort": 4624,
      "oms": 4625,
      "Ġemergency": 4626,
      "rick": 4627,
      "Ġlee": 4628,
      "Ġmagazine": 4629,
      "ius": 4630,
      "Ġclin": 4631,
      "Ġrelatively": 4632,
      "Ġapplications": 4633,
      "Ġaccounts": 4634,
      "Ġintel": 4635,
      "rad": 4636,
      "Ġmut": 4637,
      "Ġelectron": 4638,
      "icide": 4639,
      "Ġpaying": 4640,
      "Ġsuggests": 4641,
      "Ġstadium": 4642,
      "Ġpenal": 4643,
      "Ġhaw": 4644,
      "Ġinternal": 4645,
      "Ġcells": 4646,
      "asy": 4647,
      "agues": 4648,
      "Ġagencies": 4649,
      "Ġrail": 4650,
      "ception": 4651,
      "eless": 4652,
      "Ġinfrast": 4653,
      "Ġseeking": 4654,
      "Ġvehic": 4655,
      "Ġlake": 4656,
      "eter": 4657,
      "lines": 4658,
      "Ġswitch": 4659,
      "tic": 4660,
      "Ġestablished": 4661,
      "rol": 4662,
      "Ġretail": 4663,
      "vent": 4664,
      "pre": 4665,
      "Ġmas": 4666,
      "Ġtwice": 4667,
      "Ġworry": 4668,
      "Ġpossibly": 4669,
      "Ġreligion": 4670,
      "Ġdepend": 4671,
      "ulate": 4672,
      "Ġmode": 4673,
      "Ġappoint": 4674,
      "Ġpictures": 4675,
      "Ġjav": 4676,
      "Ġzone": 4677,
      "riend": 4678,
      "Ġbull": 4679,
      "Ġassemb": 4680,
      "uce": 4681,
      "Ġbasically": 4682,
      "Ġsor": 4683,
      "Ġyards": 4684,
      "ek": 4685,
      "rif": 4686,
      "Ġspan": 4687,
      "Ġregarding": 4688,
      "anda": 4689,
      "Ġincreasingly": 4690,
      "agn": 4691,
      "Ġcarbon": 4692,
      "Ġstreets": 4693,
      "Ġdim": 4694,
      "inking": 4695,
      "inn": 4696,
      "Ġartic": 4697,
      "Ġequip": 4698,
      "Ġappre": 4699,
      "Ġ36": 4700,
      "Ġnative": 4701,
      "Ġrevenue": 4702,
      "Ġrose": 4703,
      "aves": 4704,
      "Ġcarolina": 4705,
      "Ġconsidering": 4706,
      "Ġuns": 4707,
      "Ġweather": 4708,
      "Ġhumans": 4709,
      "Ġstick": 4710,
      "unk": 4711,
      "Ġdar": 4712,
      "Ġdan": 4713,
      "Ġdeveloping": 4714,
      "Ġdropped": 4715,
      "Ġcoff": 4716,
      "Ġeastern": 4717,
      "Ġimpossible": 4718,
      "Ġfrancisco": 4719,
      "Ġemb": 4720,
      "Ġvoting": 4721,
      "Ġcloser": 4722,
      "Ġexpensive": 4723,
      "Ġplenty": 4724,
      "Ġdeput": 4725,
      "Ġelements": 4726,
      "Ġcircum": 4727,
      "Ġadjust": 4728,
      "Ġvehicles": 4729,
      "Ġsitting": 4730,
      "Ġapply": 4731,
      "uate": 4732,
      "Ġspr": 4733,
      "bu": 4734,
      "Ġsurprise": 4735,
      "ocked": 4736,
      "Ġmagic": 4737,
      "Ġinfrastructure": 4738,
      "col": 4739,
      "Ġko": 4740,
      "Ġ2005": 4741,
      "Ġmont": 4742,
      "Ġarms": 4743,
      "under": 4744,
      "Ġbob": 4745,
      "Ġcub": 4746,
      "Ġlie": 4747,
      "Ġsteve": 4748,
      "Ġsoldiers": 4749,
      "Ġped": 4750,
      "35": 4751,
      "Ġelim": 4752,
      "place": 4753,
      "Ġapps": 4754,
      "Ġnut": 4755,
      "ucks": 4756,
      "emp": 4757,
      "Ġnov": 4758,
      "Ġtight": 4759,
      "Ġmere": 4760,
      "Ġpanel": 4761,
      "Ġagent": 4762,
      "Ġ2000": 4763,
      "ania": 4764,
      "makers": 4765,
      "Ġresponsibility": 4766,
      "90": 4767,
      "Ġsant": 4768,
      "Ġremove": 4769,
      "Ġboston": 4770,
      "star": 4771,
      "vant": 4772,
      "Ġrow": 4773,
      "americ": 4774,
      "Ġcarried": 4775,
      "Ġposts": 4776,
      "Ġseasons": 4777,
      "Ġbroken": 4778,
      "Ġwinter": 4779,
      "orial": 4780,
      "ocol": 4781,
      "Ġseconds": 4782,
      "bec": 4783,
      "bel": 4784,
      "conn": 4785,
      "Ġlinked": 4786,
      "Ġneither": 4787,
      "Ġguarant": 4788,
      "lets": 4789,
      "Ġvisual": 4790,
      "Ġbringing": 4791,
      "terday": 4792,
      "Ġedge": 4793,
      "life": 4794,
      "ii": 4795,
      "Ġclim": 4796,
      "exp": 4797,
      "Ġsector": 4798,
      "Ġseriously": 4799,
      "Ġfamous": 4800,
      "Ġalt": 4801,
      "Ġfundament": 4802,
      "Ġvast": 4803,
      "udi": 4804,
      "Ġsecure": 4805,
      "Ġstruct": 4806,
      "Ġdiscl": 4807,
      "Ġaid": 4808,
      "Ġfish": 4809,
      "gypt": 4810,
      "isf": 4811,
      "Ġturkey": 4812,
      "Ġgovernments": 4813,
      "Ġcombat": 4814,
      "Ġcrack": 4815,
      "Ġhelps": 4816,
      "erous": 4817,
      "ey": 4818,
      "Ġathlet": 4819,
      "eness": 4820,
      "Ġwilliams": 4821,
      "stein": 4822,
      "Ġhotel": 4823,
      "Ġunits": 4824,
      "Ġlots": 4825,
      "icted": 4826,
      "Ġchemical": 4827,
      "eration": 4828,
      "Ġselling": 4829,
      "Ġbra": 4830,
      "Ġproposal": 4831,
      "Ġdegree": 4832,
      "hens": 4833,
      "elect": 4834,
      "state": 4835,
      "Ġrecru": 4836,
      "Ġkit": 4837,
      "ih": 4838,
      "itect": 4839,
      "Ġconsumers": 4840,
      "Ġupdated": 4841,
      "Ġbrew": 4842,
      "Ġchallenges": 4843,
      "Ġfired": 4844,
      "Ġupgr": 4845,
      "23": 4846,
      "Ġcharl": 4847,
      "Ġoffering": 4848,
      "Ġerror": 4849,
      "Ġboost": 4850,
      "Ġcapacity": 4851,
      "Ġlived": 4852,
      "Ġbell": 4853,
      "Ġshad": 4854,
      "Ġ300": 4855,
      "Ġarmed": 4856,
      "person": 4857,
      "Ġrandom": 4858,
      "Ġmuse": 4859,
      "ques": 4860,
      "ansion": 4861,
      "Ġ_": 4862,
      "Ġpossibility": 4863,
      "Ġstret": 4864,
      "Ġruling": 4865,
      "Ġfacing": 4866,
      "Ġnewslet": 4867,
      "Ġpoliticians": 4868,
      "Ġcovered": 4869,
      "inate": 4870,
      "Ġsem": 4871,
      "Ġrapid": 4872,
      "Ġparis": 4873,
      "Ġdram": 4874,
      "illing": 4875,
      "Ġcontest": 4876,
      "iance": 4877,
      "Ġvulner": 4878,
      "ici": 4879,
      "500": 4880,
      "Ġhat": 4881,
      "Ġphilos": 4882,
      "Ġmit": 4883,
      "Ġbridge": 4884,
      "Ġequipment": 4885,
      "Ġcultural": 4886,
      "Ġengage": 4887,
      "ipped": 4888,
      "Ġforest": 4889,
      "Ġpowers": 4890,
      "Ġcath": 4891,
      "Ġ34": 4892,
      "Ġpotentially": 4893,
      "ander": 4894,
      "Ġunfortunately": 4895,
      "Ġkar": 4896,
      "Ġclar": 4897,
      "Ġyout": 4898,
      "Ġtrig": 4899,
      "Ġlocated": 4900,
      "Ġvirginia": 4901,
      "Ġfinish": 4902,
      "Ġsigns": 4903,
      "Ġjes": 4904,
      "Ġusa": 4905,
      "Ġsurprising": 4906,
      "cohol": 4907,
      "Ġaustralian": 4908,
      "Ġelement": 4909,
      "ologies": 4910,
      "Ġfilms": 4911,
      "Ġfaster": 4912,
      "Ġestimated": 4913,
      "Ġsymb": 4914,
      "Ġvoted": 4915,
      "Ġcraft": 4916,
      "Ġjoint": 4917,
      "ils": 4918,
      "Ġshop": 4919,
      "Ġgiant": 4920,
      "Ġegypt": 4921,
      "Ġgro": 4922,
      "Ġweapon": 4923,
      "free": 4924,
      "Ġpieces": 4925,
      "Ġbreat": 4926,
      "Ġbbc": 4927,
      "Ġrot": 4928,
      "Ġarchitect": 4929,
      "ups": 4930,
      "Ġshape": 4931,
      "Ġcomplic": 4932,
      "Ġrenew": 4933,
      "cel": 4934,
      "Ġprove": 4935,
      "which": 4936,
      "Ġsupporting": 4937,
      "Ġbroadcast": 4938,
      "Ġpercentage": 4939,
      "Ġreporters": 4940,
      "Ġyesterday": 4941,
      "Ġtact": 4942,
      "rible": 4943,
      "Ġpurchase": 4944,
      "Ġzero": 4945,
      "Ġkel": 4946,
      "Ġpackage": 4947,
      "Ġwalking": 4948,
      "Ġhurt": 4949,
      "Ġflat": 4950,
      "Ġprepared": 4951,
      "Ġconsumer": 4952,
      "Ġafterno": 4953,
      "Ġdun": 4954,
      "Ġequal": 4955,
      "iation": 4956,
      "Ġcoord": 4957,
      "Ġexcell": 4958,
      "Ġandrew": 4959,
      "Ġgreatest": 4960,
      "Ġclassic": 4961,
      "aded": 4962,
      "Ġrum": 4963,
      "ingly": 4964,
      "Ġexcited": 4965,
      "Ġroute": 4966,
      "Ġevening": 4967,
      "mark": 4968,
      "Ġcreative": 4969,
      "Ġgrab": 4970,
      "Ġdynam": 4971,
      "Ġshift": 4972,
      "Ġbroke": 4973,
      "Ġpitch": 4974,
      "Ġcloud": 4975,
      "Ġstress": 4976,
      "oned": 4977,
      "isted": 4978,
      "Ġminimum": 4979,
      "Ġturning": 4980,
      "Ġguide": 4981,
      "apers": 4982,
      "Ġelected": 4983,
      "Ġadvent": 4984,
      "Ġbol": 4985,
      "Ġtroops": 4986,
      "sl": 4987,
      "aren": 4988,
      "Ġforget": 4989,
      "Ġgraph": 4990,
      "Ġsche": 4991,
      "Ġdetermine": 4992,
      "ran": 4993,
      "Ġru": 4994,
      "Ġamendment": 4995,
      "Ġdedic": 4996,
      "Ġstudio": 4997,
      "Ġpresented": 4998,
      "ko": 4999,
      "Ġexplos": 5000,
      "Ġpip": 5001,
      "Ġbowl": 5002,
      "Ġheight": 5003,
      "Ġtransition": 5004,
      "Ġadvanced": 5005,
      "Ġoly": 5006,
      "Ġpra": 5007,
      "road": 5008,
      "Ġyoutube": 5009,
      "Ġintended": 5010,
      "Ġtrend": 5011,
      "Ġcoalition": 5012,
      "Ġtechnical": 5013,
      "Ġrefused": 5014,
      "Ġemails": 5015,
      "ett": 5016,
      "Ġhopes": 5017,
      "Ġisis": 5018,
      "Ġmail": 5019,
      "char": 5020,
      "Ġafternoon": 5021,
      "Ġopportunities": 5022,
      "Ġwearing": 5023,
      "Ġjackson": 5024,
      "Ġdeploy": 5025,
      "Ġshel": 5026,
      "Ġalcohol": 5027,
      "Ġoccurred": 5028,
      "Ġbac": 5029,
      "Ġweren": 5030,
      "Ġseat": 5031,
      "Ġstone": 5032,
      "Ġpointed": 5033,
      "Ġsuspect": 5034,
      "Ġappeal": 5035,
      "care": 5036,
      "Ġguest": 5037,
      "Ġunc": 5038,
      "Ġupdates": 5039,
      "Ġatm": 5040,
      "Ġtypically": 5041,
      "Ġscr": 5042,
      "Ġminute": 5043,
      "Ġbure": 5044,
      "isher": 5045,
      "Ġbought": 5046,
      "zy": 5047,
      "Ġhandle": 5048,
      "Ġmuseum": 5049,
      "Ġtree": 5050,
      "Ġnick": 5051,
      "har": 5052,
      "Ġministry": 5053,
      "oles": 5054,
      "night": 5055,
      "Ġadvance": 5056,
      "Ġwire": 5057,
      "Ġcombined": 5058,
      "enced": 5059,
      "Ġker": 5060,
      "Ġarr": 5061,
      "Ġboys": 5062,
      "Ġcro": 5063,
      "Ġsubs": 5064,
      "Ġcollabor": 5065,
      "Ġtag": 5066,
      "Ġmatters": 5067,
      "Ġquant": 5068,
      "Ġregional": 5069,
      "26": 5070,
      "Ġbraz": 5071,
      "Ġkim": 5072,
      "Ġbright": 5073,
      "Ġplayoff": 5074,
      "Ġmethods": 5075,
      "Ġbatt": 5076,
      "ribute": 5077,
      "class": 5078,
      "Ġolymp": 5079,
      "Ġappreci": 5080,
      "Ġeverybody": 5081,
      "Ġexpressed": 5082,
      "Ġpositions": 5083,
      "Ġflu": 5084,
      "Ġaffected": 5085,
      "Ġregime": 5086,
      "27": 5087,
      "Ġbeach": 5088,
      "Ġbreaking": 5089,
      "Ġmaintain": 5090,
      "Ġdur": 5091,
      "Ġurban": 5092,
      "Ġguns": 5093,
      "Ġcommunications": 5094,
      "Ġappearance": 5095,
      "Ġox": 5096,
      "nd": 5097,
      "Ġconducted": 5098,
      "ining": 5099,
      "Ġsquad": 5100,
      "Ġpassing": 5101,
      "Ġmovies": 5102,
      "ashion": 5103,
      "Ġdemocracy": 5104,
      "pir": 5105,
      "Ġ37": 5106,
      "Ġsar": 5107,
      "Ġbes": 5108,
      "Ġartist": 5109,
      "Ġanalyst": 5110,
      "Ġmos": 5111,
      "Ġpic": 5112,
      "otic": 5113,
      "porary": 5114,
      "pet": 5115,
      "ita": 5116,
      "Ġohio": 5117,
      "Ġscot": 5118,
      "Ġdisappoint": 5119,
      "Ġly": 5120,
      "sell": 5121,
      "Ġuniverse": 5122,
      "Ġreporting": 5123,
      "Ġreportedly": 5124,
      "Ġchart": 5125,
      "car": 5126,
      "wom": 5127,
      "Ġtrouble": 5128,
      "Ġinstruct": 5129,
      "Ġmotiv": 5130,
      "Ġron": 5131,
      "Ġcomed": 5132,
      "ashed": 5133,
      "Ġleads": 5134,
      "greg": 5135,
      "Ġluc": 5136,
      "Ġpages": 5137,
      "Ġproced": 5138,
      "Ġdrivers": 5139,
      "Ġbureau": 5140,
      "Ġinvolve": 5141,
      "Ġinitially": 5142,
      "Ġanth": 5143,
      "Ġproceed": 5144,
      "Ġdrag": 5145,
      "Ġell": 5146,
      "Ġplants": 5147,
      "Ġske": 5148,
      "Ġcraz": 5149,
      "Ġcnn": 5150,
      "add": 5151,
      "Ġends": 5152,
      "Ġkur": 5153,
      "esters": 5154,
      "Ġactivists": 5155,
      "Ġ2004": 5156,
      "Ġconfident": 5157,
      "def": 5158,
      "oth": 5159,
      "Ġpool": 5160,
      "Ġmun": 5161,
      "Ġrising": 5162,
      "Ġproud": 5163,
      "Ġbuff": 5164,
      "Ġrein": 5165,
      "Ġcrimes": 5166,
      "Ġgrew": 5167,
      "Ġremaining": 5168,
      "Ġmine": 5169,
      "Ġidentify": 5170,
      "Ġforms": 5171,
      "Ġfactors": 5172,
      "ading": 5173,
      "sex": 5174,
      "Ġwear": 5175,
      "Ġseattle": 5176,
      "Ġgear": 5177,
      "related": 5178,
      "Ġfactor": 5179,
      "Ġjour": 5180,
      "21": 5181,
      "itable": 5182,
      "Ġboss": 5183,
      "Ġmyster": 5184,
      "phas": 5185,
      "Ġstring": 5186,
      "Ġpod": 5187,
      "Ġbike": 5188,
      "top": 5189,
      "aa": 5190,
      "Ġocean": 5191,
      "Ġdismiss": 5192,
      "Ġquarterback": 5193,
      "mond": 5194,
      "Ġreaders": 5195,
      "Ġride": 5196,
      "Ġdebut": 5197,
      "Ġgather": 5198,
      "Ġexperienced": 5199,
      "Ġreuters": 5200,
      "Ġire": 5201,
      "Ġdefault": 5202,
      "comm": 5203,
      "Ġpulled": 5204,
      "ography": 5205,
      "Ġapproved": 5206,
      "Ġaircraft": 5207,
      "essions": 5208,
      "ini": 5209,
      "Ġtalent": 5210,
      "Ġshouldn": 5211,
      "Ġsession": 5212,
      "Ġdoctors": 5213,
      "Ġdetermined": 5214,
      "Ġresc": 5215,
      "idden": 5216,
      "Ġfro": 5217,
      "Ġmoon": 5218,
      "ivered": 5219,
      "Ġrestaurant": 5220,
      "ship": 5221,
      "Ġbound": 5222,
      "Ġmetal": 5223,
      "pret": 5224,
      "ruption": 5225,
      "Ġfaces": 5226,
      "Ġrecorded": 5227,
      "33": 5228,
      "Ġargued": 5229,
      "ano": 5230,
      "Ġthoughts": 5231,
      "Ġsilver": 5232,
      "Ġessentially": 5233,
      "Ġdenied": 5234,
      "Ġcompleted": 5235,
      "iplom": 5236,
      "Ġconfidence": 5237,
      "Ġquiet": 5238,
      "Ġadmitted": 5239,
      "Ġattempts": 5240,
      "Ġ38": 5241,
      "Ġreli": 5242,
      "Ġash": 5243,
      "Ġring": 5244,
      "Ġcreation": 5245,
      "Ġreaction": 5246,
      "Ġta": 5247,
      "Ġsignificantly": 5248,
      "water": 5249,
      "Ġmarketing": 5250,
      "po": 5251,
      "Ġmessages": 5252,
      "Ġles": 5253,
      "Ġromney": 5254,
      "pass": 5255,
      "Ġresponded": 5256,
      "Ġadvice": 5257,
      "Ġtalked": 5258,
      "Ġfixed": 5259,
      "Ġtournament": 5260,
      "Ġlawyer": 5261,
      "Ġroyal": 5262,
      "Ġprofile": 5263,
      "aints": 5264,
      "Ġinjured": 5265,
      "Ġcow": 5266,
      "Ġ//": 5267,
      "Ġnewspaper": 5268,
      "Ġlaugh": 5269,
      "Ġviolent": 5270,
      "Ġdani": 5271,
      "Ġinvestors": 5272,
      "28": 5273,
      "Ġprompt": 5274,
      "Ġlinks": 5275,
      "Ġongoing": 5276,
      "illed": 5277,
      "otyp": 5278,
      "Ġtreated": 5279,
      "hered": 5280,
      "Ġgon": 5281,
      "Ġaffairs": 5282,
      "Ġcalcul": 5283,
      "Ġstands": 5284,
      "Ġafghanistan": 5285,
      "Ġreference": 5286,
      "Ġconstruct": 5287,
      "Ġstorm": 5288,
      "Ġterrorist": 5289,
      "Ġwarning": 5290,
      "dd": 5291,
      "Ġyell": 5292,
      "Ġagents": 5293,
      "olved": 5294,
      "Ġdiplom": 5295,
      "Ġdiscrim": 5296,
      "Ġpin": 5297,
      "Ġbelong": 5298,
      "Ġcampus": 5299,
      "Ġsaudi": 5300,
      "Ġairport": 5301,
      "Ġcontrast": 5302,
      "Ġnumerous": 5303,
      "Ġclient": 5304,
      "Ġexplore": 5305,
      "Ġdatab": 5306,
      "Ġrally": 5307,
      "Ġvalley": 5308,
      "Ġexamples": 5309,
      "west": 5310,
      "Ġmichigan": 5311,
      "Ġresolution": 5312,
      "Ġinjuries": 5313,
      "dp": 5314,
      "Ġgi": 5315,
      "Ġdiet": 5316,
      "Ġwrites": 5317,
      "Ġlord": 5318,
      "Ġschol": 5319,
      "Ġdelay": 5320,
      "Ġdeclined": 5321,
      "Ġstan": 5322,
      "oh": 5323,
      "Ġloved": 5324,
      "Ġstorage": 5325,
      "Ġperman": 5326,
      "Ġallegations": 5327,
      "Ġcustomer": 5328,
      "Ġwik": 5329,
      "gment": 5330,
      "Ġdelivered": 5331,
      "abilities": 5332,
      "Ġflood": 5333,
      "Ġchristmas": 5334,
      "Ġsets": 5335,
      "Ġjul": 5336,
      "Ġwidely": 5337,
      "Ġexplains": 5338,
      "Ġny": 5339,
      "Ġunable": 5340,
      "ales": 5341,
      "idel": 5342,
      "Ġ195": 5343,
      "atures": 5344,
      "Ġvirtual": 5345,
      "Ġherself": 5346,
      "erved": 5347,
      "Ġfestival": 5348,
      "Ġwilliam": 5349,
      "Ġfranch": 5350,
      "Ġremained": 5351,
      "Ġreduced": 5352,
      "Ġnobody": 5353,
      "ensions": 5354,
      "Ġpassen": 5355,
      "Ġconsc": 5356,
      "Ġedition": 5357,
      "Ġukraine": 5358,
      "Ġlg": 5359,
      "Ġfacts": 5360,
      "Ġiphone": 5361,
      "hab": 5362,
      "Ġconfirm": 5363,
      "Ġmaterials": 5364,
      "Ġopposed": 5365,
      "Ġannouncement": 5366,
      "Ġol": 5367,
      "Ġtas": 5368,
      "gia": 5369,
      "Ġhou": 5370,
      "Ġapprox": 5371,
      "Ġpublicly": 5372,
      "rier": 5373,
      "Ġenemy": 5374,
      "employ": 5375,
      "Ġarticles": 5376,
      "Ġric": 5377,
      "olit": 5378,
      "Ġforg": 5379,
      "illa": 5380,
      "Ġwaste": 5381,
      "Ġvent": 5382,
      "Ġwelcome": 5383,
      "Ġassistant": 5384,
      "Ġbarack": 5385,
      "Ġtermin": 5386,
      "Ġwins": 5387,
      "ugg": 5388,
      "long": 5389,
      "Ġlabel": 5390,
      "Ġdistance": 5391,
      "ml": 5392,
      "Ġbodies": 5393,
      "Ġperspective": 5394,
      "Ġremind": 5395,
      "unte": 5396,
      "Ġvalid": 5397,
      "Ġegg": 5398,
      "Ġanyway": 5399,
      "Ġscheduled": 5400,
      "Ġmissed": 5401,
      "Ġaside": 5402,
      "Ġiron": 5403,
      "ores": 5404,
      "Ġstrange": 5405,
      "Ġvillage": 5406,
      "oy": 5407,
      "wal": 5408,
      "Ġsuffered": 5409,
      "Ġsevere": 5410,
      "Ġauth": 5411,
      "Ġsin": 5412,
      "ias": 5413,
      "Ġstruggle": 5414,
      "Ġbasket": 5415,
      "Ġmanufacture": 5416,
      "Ġpicked": 5417,
      "Ġ49": 5418,
      "Ġsharp": 5419,
      "Ġ1990": 5420,
      "Ġsweet": 5421,
      "Ġflash": 5422,
      "Ġguil": 5423,
      "iger": 5424,
      "gas": 5425,
      "ansas": 5426,
      "Ġdial": 5427,
      "Ġconfig": 5428,
      "Ġentertainment": 5429,
      "Ġcapable": 5430,
      "Ġmountain": 5431,
      "Ġoffense": 5432,
      "Ġpure": 5433,
      "Ġinstitutions": 5434,
      "Ġshots": 5435,
      "Ġconnected": 5436,
      "Ġpatient": 5437,
      "Ġatmosp": 5438,
      "Ġnetworks": 5439,
      "Ġagend": 5440,
      "Ġbutton": 5441,
      "Ġlam": 5442,
      "oma": 5443,
      "Ġbaseball": 5444,
      "Ġleaves": 5445,
      "Ġimproved": 5446,
      "Ġdiss": 5447,
      "Ġexpansion": 5448,
      "angers": 5449,
      "mates": 5450,
      "Ġcert": 5451,
      "Ġlawsuit": 5452,
      "Ġfaced": 5453,
      "Ġanonym": 5454,
      "Ġwrit": 5455,
      "Ġstatements": 5456,
      "Ġps": 5457,
      "isters": 5458,
      "Ġfindings": 5459,
      "Ġindustrial": 5460,
      "Ġgm": 5461,
      "Ġwarned": 5462,
      "Ġcriticism": 5463,
      "Ġmarried": 5464,
      "Ġgaz": 5465,
      "Ġchampion": 5466,
      "Ġrocket": 5467,
      "Ġmuslims": 5468,
      "Ġforum": 5469,
      "ipping": 5470,
      "Ġstream": 5471,
      "Ġbuildings": 5472,
      "Ġobserv": 5473,
      "Ġjersey": 5474,
      "Ġexercise": 5475,
      "Ġiv": 5476,
      "29": 5477,
      "Ġcoffee": 5478,
      "Ġexperiences": 5479,
      "Ġwake": 5480,
      "chester": 5481,
      "Ġbare": 5482,
      "Ġgang": 5483,
      "Ġadds": 5484,
      "standing": 5485,
      "eds": 5486,
      "Ġeval": 5487,
      "Ġ48": 5488,
      "Ġentry": 5489,
      "Ġroughly": 5490,
      "Ġdrink": 5491,
      "Ġwarm": 5492,
      "Ġordered": 5493,
      "Ġsatisf": 5494,
      "inent": 5495,
      "Ġcritics": 5496,
      "Ġfinance": 5497,
      "Ġ75": 5498,
      "Ġdoub": 5499,
      "Ġdifferences": 5500,
      "Ġvolunte": 5501,
      "Ġeric": 5502,
      "Ġschedule": 5503,
      "Ġlit": 5504,
      "Ġthinks": 5505,
      "game": 5506,
      "Ġprotests": 5507,
      "Ġfacility": 5508,
      "Ġconcent": 5509,
      "rid": 5510,
      "Ġpractices": 5511,
      "44": 5512,
      "aped": 5513,
      "Ġnba": 5514,
      "Ġlegit": 5515,
      "Ġrealize": 5516,
      "Ġliqu": 5517,
      "ura": 5518,
      "called": 5519,
      "Ġdeclared": 5520,
      "Ġthreats": 5521,
      "name": 5522,
      "etic": 5523,
      "Ġfraud": 5524,
      "Ġariz": 5525,
      "Ġdefence": 5526,
      "ributed": 5527,
      "Ġhardware": 5528,
      "Ġenh": 5529,
      "Ġdeputy": 5530,
      "Ġpatri": 5531,
      "Ġemphas": 5532,
      "Ġcurrency": 5533,
      "Ġeffectively": 5534,
      "Ġradical": 5535,
      "Ġpremier": 5536,
      "Ġourselves": 5537,
      "Ġsongs": 5538,
      "Ġstores": 5539,
      "agers": 5540,
      "Ġmotion": 5541,
      "Ġguilty": 5542,
      "Ġbuying": 5543,
      "illance": 5544,
      "ocket": 5545,
      "Ġnearby": 5546,
      "abled": 5547,
      "Ġbear": 5548,
      "Ġbills": 5549,
      "Ġcolorado": 5550,
      "Ġireland": 5551,
      "Ġhide": 5552,
      "sm": 5553,
      "Ġswed": 5554,
      "Ġaccom": 5555,
      "inating": 5556,
      "Ġargue": 5557,
      "Ġcos": 5558,
      "Ġcolumb": 5559,
      "Ġregulations": 5560,
      "rawn": 5561,
      "rie": 5562,
      "Ġcrazy": 5563,
      "Ġgaming": 5564,
      "Ġwave": 5565,
      "Ġfilled": 5566,
      "Ġbrazil": 5567,
      "Ġmoves": 5568,
      "Ġplot": 5569,
      "Ġbattery": 5570,
      "Ġcircumst": 5571,
      "Ġfavour": 5572,
      "Ġheads": 5573,
      "Ġaband": 5574,
      "Ġlisted": 5575,
      "law": 5576,
      "Ġprohib": 5577,
      "Ġpromise": 5578,
      "Ġhonor": 5579,
      "Ġmoments": 5580,
      "Ġsurprised": 5581,
      "Ġdesk": 5582,
      "Ġscored": 5583,
      "lywood": 5584,
      "Ġsteel": 5585,
      "bn": 5586,
      "ancing": 5587,
      "ocks": 5588,
      "Ġallegedly": 5589,
      "ooking": 5590,
      "Ġcruz": 5591,
      "Ġpled": 5592,
      "Ġbrings": 5593,
      "Ġtotally": 5594,
      "iest": 5595,
      "Ġappropriate": 5596,
      "Ġwatched": 5597,
      "Ġsubstant": 5598,
      "Ġaccompl": 5599,
      "ador": 5600,
      "Ġfashion": 5601,
      "uations": 5602,
      "Ġputin": 5603,
      "Ġfemin": 5604,
      "Ġblow": 5605,
      "Ġtiny": 5606,
      "Ġplane": 5607,
      "Ġhistorical": 5608,
      "Ġdesire": 5609,
      "Ġchain": 5610,
      "Ġcaptain": 5611,
      "Ġsurveillance": 5612,
      "Ġsubsequ": 5613,
      "Ġuncle": 5614,
      "Ġjourney": 5615,
      "()": 5616,
      "Ġteachers": 5617,
      "Ġprotesters": 5618,
      "Ġkorean": 5619,
      "Ġcruc": 5620,
      "inals": 5621,
      "cs": 5622,
      "Ġunlikely": 5623,
      "Ġbegins": 5624,
      "Ġmonit": 5625,
      "Ġevolution": 5626,
      "Ġshall": 5627,
      "Ġ2003": 5628,
      "Ġfewer": 5629,
      "rd": 5630,
      "Ġaudio": 5631,
      "Ġconsequences": 5632,
      "Ġincor": 5633,
      "Ġmeat": 5634,
      "Ġsigning": 5635,
      "athan": 5636,
      "Ġregardless": 5637,
      "Ġnasa": 5638,
      "Ġhoping": 5639,
      "Ġdeveloper": 5640,
      "Ġoverw": 5641,
      "inte": 5642,
      "Ġgalax": 5643,
      "Ġsharing": 5644,
      "Ġtreas": 5645,
      "lete": 5646,
      "Ġreceiving": 5647,
      "Ġcolleagues": 5648,
      "Ġpushed": 5649,
      "Ġkil": 5650,
      "eland": 5651,
      "Ġdeaths": 5652,
      "Ġmulti": 5653,
      "Ġartists": 5654,
      "Ġyounger": 5655,
      "Ġcauses": 5656,
      "Ġanywhere": 5657,
      "Ġevil": 5658,
      "Ġimplic": 5659,
      "Ġsplit": 5660,
      "Ġfeatured": 5661,
      "Ġreturns": 5662,
      "Ġkevin": 5663,
      "ionally": 5664,
      "Ġapplied": 5665,
      "Ġcontains": 5666,
      "anged": 5667,
      "rey": 5668,
      "Ġhouston": 5669,
      "respond": 5670,
      "cho": 5671,
      "Ġtan": 5672,
      "roit": 5673,
      "Ġupcoming": 5674,
      "sing": 5675,
      "Ġsuicide": 5676,
      "Ġnecessarily": 5677,
      "Ġsick": 5678,
      "Ġmoral": 5679,
      "Ġhousehold": 5680,
      "Ġcheap": 5681,
      "Ġwinner": 5682,
      "Ġdavis": 5683,
      "ocking": 5684,
      "Ġacting": 5685,
      "ounded": 5686,
      "Ġadam": 5687,
      "orders": 5688,
      "Ġincreases": 5689,
      "Ġoutput": 5690,
      "Ġshares": 5691,
      "Ġancient": 5692,
      "level": 5693,
      "Ġrepresents": 5694,
      "Ġtear": 5695,
      "Ġdistribution": 5696,
      "Ġobjects": 5697,
      "Ġknowing": 5698,
      "tim": 5699,
      "Ġfifth": 5700,
      "Ġcomic": 5701,
      "Ġagenda": 5702,
      "Ġgolden": 5703,
      "imp": 5704,
      "Ġessential": 5705,
      "Ġopponents": 5706,
      "Ġinqu": 5707,
      "Ġble": 5708,
      "Ġreco": 5709,
      "ache": 5710,
      "Ġjam": 5711,
      "Ġdivers": 5712,
      "Ġ2001": 5713,
      "iver": 5714,
      "inet": 5715,
      "Ġ39": 5716,
      "Ġadults": 5717,
      "ooth": 5718,
      "Ġsubscribe": 5719,
      "Ġwithd": 5720,
      "vis": 5721,
      "arters": 5722,
      "order": 5723,
      "Ġshif": 5724,
      "tle": 5725,
      "Ġalongside": 5726,
      "Ġsight": 5727,
      "Ġstephen": 5728,
      "inder": 5729,
      "Ġlicense": 5730,
      "Ġharv": 5731,
      "Ġ150": 5732,
      "uster": 5733,
      "Ġacknowled": 5734,
      "Ġexplan": 5735,
      "icing": 5736,
      "Ġfab": 5737,
      "Ġaccepted": 5738,
      "Ġcompetitive": 5739,
      "Ġig": 5740,
      "weight": 5741,
      "Ġcycle": 5742,
      "Ġinspired": 5743,
      "Ġarizona": 5744,
      "burg": 5745,
      "Ġtay": 5746,
      "Ġexcellent": 5747,
      "Ġbrad": 5748,
      "Ġtort": 5749,
      "rich": 5750,
      "Ġharder": 5751,
      "Ġtrick": 5752,
      "Ġfantasy": 5753,
      "Ġfairly": 5754,
      "Ġvolume": 5755,
      "Ġterrorism": 5756,
      "Ġencourage": 5757,
      "ockey": 5758,
      "Ġheavily": 5759,
      "Ġtemperature": 5760,
      "Ġrefugees": 5761,
      "Ġinput": 5762,
      "Ġsought": 5763,
      "va": 5764,
      "Ġremote": 5765,
      "Ġlies": 5766,
      "Ġcrash": 5767,
      "Ġlegend": 5768,
      "Ġ(\"": 5769,
      "Ġpushing": 5770,
      "Ġsustain": 5771,
      "Ġcongressional": 5772,
      "Ġ1980": 5773,
      "Ġasia": 5774,
      "Ġengineering": 5775,
      "Ġreporter": 5776,
      "Ġtargets": 5777,
      "Ġrape": 5778,
      "look": 5779,
      "Ġtea": 5780,
      "nic": 5781,
      "Ġpersonally": 5782,
      "Ġdad": 5783,
      "photo": 5784,
      "Ġbehavi": 5785,
      "Ġjr": 5786,
      "hus": 5787,
      "Ġrig": 5788,
      "Ġalert": 5789,
      "75": 5790,
      "Ġscand": 5791,
      "Ġimmigrants": 5792,
      "Ġcontroversial": 5793,
      "Ġchick": 5794,
      "asp": 5795,
      "Ġawes": 5796,
      "ogue": 5797,
      "Ġacts": 5798,
      "Ġembr": 5799,
      "Ġsuddenly": 5800,
      "Ġindex": 5801,
      "iat": 5802,
      "Ġcorrespond": 5803,
      "Ġfollows": 5804,
      "Ġlock": 5805,
      "Ġempt": 5806,
      "Ġsi": 5807,
      "Ġcombination": 5808,
      "Ġconsistent": 5809,
      "Ġdry": 5810,
      "Ġtheat": 5811,
      "Ġfu": 5812,
      "Ġsees": 5813,
      "ternal": 5814,
      "Ġclasses": 5815,
      "Ġphilosop": 5816,
      "Ġcolon": 5817,
      "orted": 5818,
      "Ġwid": 5819,
      "eff": 5820,
      "ses": 5821,
      "Ġholds": 5822,
      "odes": 5823,
      "oral": 5824,
      "inter": 5825,
      "Ġstood": 5826,
      "Ġtherap": 5827,
      "woman": 5828,
      "48": 5829,
      "Ġprovince": 5830,
      "Ġearned": 5831,
      "Ġdogs": 5832,
      "ilit": 5833,
      "Ġrecall": 5834,
      "Ġsymbol": 5835,
      "Ġconservatives": 5836,
      "Ġsucceed": 5837,
      "Ġdiscussed": 5838,
      "viet": 5839,
      "Ġjord": 5840,
      "Ġhung": 5841,
      "32": 5842,
      "verty": 5843,
      "Ġgap": 5844,
      "Ġmp": 5845,
      "Ġmiller": 5846,
      "wa": 5847,
      "Ġgrown": 5848,
      "Ġcolumn": 5849,
      "Ġfolks": 5850,
      "Ġcommunication": 5851,
      "Ġtechnologies": 5852,
      "Ġconclusion": 5853,
      "rison": 5854,
      "Ġcable": 5855,
      "Ġpopul": 5856,
      "Ġcha": 5857,
      "Ġsym": 5858,
      "Ġpartnership": 5859,
      "Ġimmediate": 5860,
      "Ġ400": 5861,
      "Ġvictor": 5862,
      "irty": 5863,
      "born": 5864,
      "Ġcommitment": 5865,
      "Ġimper": 5866,
      "Ġversions": 5867,
      "rist": 5868,
      "Ġpoverty": 5869,
      "Ġpregn": 5870,
      "Ġlad": 5871,
      "oom": 5872,
      "Ġdetailed": 5873,
      "Ġopponent": 5874,
      "Ġsomewhat": 5875,
      "Ġpolls": 5876,
      "Ġmainstream": 5877,
      "foot": 5878,
      "Ġunus": 5879,
      "Ġjournalists": 5880,
      "awa": 5881,
      "Ġpassion": 5882,
      "Ġital": 5883,
      "acks": 5884,
      "reen": 5885,
      "Ġserving": 5886,
      "Ġentered": 5887,
      "rated": 5888,
      "Ġsister": 5889,
      "ua": 5890,
      "acle": 5891,
      "Ġphen": 5892,
      "Ġcomfortable": 5893,
      "Ġunknown": 5894,
      "Ġdaniel": 5895,
      "Ġshell": 5896,
      "Ġtargeted": 5897,
      "atell": 5898,
      "Ġmedicine": 5899,
      "era": 5900,
      "Ġassets": 5901,
      "usal": 5902,
      "Ġdub": 5903,
      "Ġwheel": 5904,
      "Ġshortly": 5905,
      "Ġexhib": 5906,
      "Ġsolutions": 5907,
      "Ġabortion": 5908,
      "Ġfasc": 5909,
      "Ġexciting": 5910,
      "ricult": 5911,
      "Ġemotional": 5912,
      "Ġalive": 5913,
      "Ġcarrying": 5914,
      "aug": 5915,
      "Ġliterally": 5916,
      "Ġrepeatedly": 5917,
      "Ġcham": 5918,
      "Ġparticipants": 5919,
      "pool": 5920,
      "lands": 5921,
      "Ġpalestinian": 5922,
      "rog": 5923,
      "36": 5924,
      "Ġdedicated": 5925,
      "Ġimportance": 5926,
      "Ġcrypt": 5927,
      "Ġbrian": 5928,
      "ocal": 5929,
      "Ġclosely": 5930,
      "Ġeating": 5931,
      "Ġunemploy": 5932,
      "ette": 5933,
      "Ġwing": 5934,
      "Ġbench": 5935,
      "##": 5936,
      "Ġdetroit": 5937,
      "Ġassembly": 5938,
      "Ġintention": 5939,
      "38": 5940,
      "Ġbail": 5941,
      "Ġdecline": 5942,
      "elled": 5943,
      "Ġperformed": 5944,
      "Ġdiscover": 5945,
      "Ġapproval": 5946,
      "fire": 5947,
      "Ġcyber": 5948,
      "Ġphase": 5949,
      "Ġyeah": 5950,
      "Ġsubsid": 5951,
      "Ġopposite": 5952,
      "Ġnomine": 5953,
      "Ġdc": 5954,
      "Ġisol": 5955,
      "Ġdowntown": 5956,
      "Ġspin": 5957,
      "Ġauthors": 5958,
      "vey": 5959,
      "Ġcannab": 5960,
      "Ġrating": 5961,
      "ati": 5962,
      "iro": 5963,
      "Ġticket": 5964,
      "urning": 5965,
      "Ġawesome": 5966,
      "Ġrecon": 5967,
      "Ġsuffering": 5968,
      "Ġdepth": 5969,
      "tc": 5970,
      "Ġneut": 5971,
      "Ġcycl": 5972,
      "Ġactor": 5973,
      "Ġsending": 5974,
      "kel": 5975,
      "Ġowned": 5976,
      "after": 5977,
      "Ġblame": 5978,
      "Ġcharles": 5979,
      "mail": 5980,
      "Ġthread": 5981,
      "Ġ55": 5982,
      "47": 5983,
      "some": 5984,
      "Ġretire": 5985,
      "Ġrod": 5986,
      "Ġagricult": 5987,
      "Ġassert": 5988,
      "Ġtrading": 5989,
      "ologist": 5990,
      "Ġefficient": 5991,
      "print": 5992,
      "Ġtheme": 5993,
      "Ġprotected": 5994,
      "Ġtransportation": 5995,
      "adel": 5996,
      "Ġproof": 5997,
      "Ġflav": 5998,
      "Ġreward": 5999,
      "erves": 6000,
      "Ġstruck": 6001,
      "Ġtap": 6002,
      "Ġfranchise": 6003,
      "Ġrent": 6004,
      "Ġflex": 6005,
      "now": 6006,
      "anes": 6007,
      "cr": 6008,
      "Ġreput": 6009,
      "Ġmarg": 6010,
      "Ġteacher": 6011,
      "olve": 6012,
      "Ġreplaced": 6013,
      "Ġkingdom": 6014,
      "Ġallies": 6015,
      "Ġdeals": 6016,
      "Ġrelationships": 6017,
      "Ġinterpret": 6018,
      "Ġtab": 6019,
      "Ġconstant": 6020,
      "Ġintr": 6021,
      "Ġmatches": 6022,
      "Ġinstru": 6023,
      "Ġterritory": 6024,
      "Ġrisks": 6025,
      "Ġwilson": 6026,
      "sters": 6027,
      "Ġtall": 6028,
      "Ġsomehow": 6029,
      "Ġimpressive": 6030,
      "Ġorders": 6031,
      "Ġraw": 6032,
      "Ġfounder": 6033,
      "Ġoverwhel": 6034,
      "Ġadvertising": 6035,
      "Ġfundamental": 6036,
      "Ġintent": 6037,
      "list": 6038,
      "Ġsample": 6039,
      "Ġparking": 6040,
      "stood": 6041,
      "Ġdatabase": 6042,
      "Ġeld": 6043,
      "pay": 6044,
      "Ġflying": 6045,
      "Ġminim": 6046,
      "Ġkelly": 6047,
      "Ġrelevant": 6048,
      "Ġinspect": 6049,
      "Ġcra": 6050,
      "Ġscheme": 6051,
      "Ġelite": 6052,
      "acc": 6053,
      "Ġdress": 6054,
      "lick": 6055,
      "Ġ42": 6056,
      "Ġpromised": 6057,
      "Ġcia": 6058,
      "Ġfrequently": 6059,
      "Ġrequests": 6060,
      "rate": 6061,
      "iences": 6062,
      "Ġstretch": 6063,
      "Ġdeck": 6064,
      "\")": 6065,
      "Ġdecre": 6066,
      "Ġdealing": 6067,
      "Ġdescribe": 6068,
      "every": 6069,
      "Ġmiami": 6070,
      "amm": 6071,
      "Ġupper": 6072,
      "Ġlawmakers": 6073,
      "Ġjews": 6074,
      "Ġ44": 6075,
      "Ġsurger": 6076,
      "Ġah": 6077,
      "Ġproperties": 6078,
      "Ġsab": 6079,
      "Ġford": 6080,
      "Ġhockey": 6081,
      "Ġfunctions": 6082,
      "yes": 6083,
      "Ġrequirements": 6084,
      "Ġestate": 6085,
      "ole": 6086,
      "dri": 6087,
      "Ġsurrounding": 6088,
      "Ġcircumstances": 6089,
      "lyn": 6090,
      "arks": 6091,
      "keep": 6092,
      "omen": 6093,
      "Ġlikes": 6094,
      "gender": 6095,
      "Ġted": 6096,
      "Ġali": 6097,
      "tion": 6098,
      "Ġcutting": 6099,
      "Ġnhl": 6100,
      "Ġfighters": 6101,
      "Ġdeeply": 6102,
      "Ġfees": 6103,
      "Ġlocations": 6104,
      "Ġeb": 6105,
      "Ġdollar": 6106,
      "Ġinstitution": 6107,
      "Ġsentence": 6108,
      "Ġresistance": 6109,
      "Ġhollywood": 6110,
      "Ġ65": 6111,
      "ensus": 6112,
      "Ġselection": 6113,
      "Ġdall": 6114,
      "Ġusual": 6115,
      "Ġattempted": 6116,
      "Ġkinds": 6117,
      "Ġwage": 6118,
      "Ġhyd": 6119,
      "Ġmistake": 6120,
      "dit": 6121,
      "Ġmyth": 6122,
      "Ġ2002": 6123,
      "Ġcatholic": 6124,
      "Ġzeal": 6125,
      "fall": 6126,
      "sea": 6127,
      "Ġcoc": 6128,
      "Ġmouth": 6129,
      "Ġfisc": 6130,
      "Ġputs": 6131,
      "Ġemployee": 6132,
      "Ġemployment": 6133,
      "Ġextended": 6134,
      "Ġlew": 6135,
      "Ġpleas": 6136,
      "vi": 6137,
      "Ġworldwide": 6138,
      "Ġapproximately": 6139,
      "Ġsalt": 6140,
      "Ġmagn": 6141,
      "Ġgeorgia": 6142,
      "Ġbom": 6143,
      "Ġexistence": 6144,
      "style": 6145,
      "Ġemissions": 6146,
      "Ġfields": 6147,
      "Ġcausing": 6148,
      "Ġdeleg": 6149,
      "Ġelsewhere": 6150,
      "Ġworried": 6151,
      "pan": 6152,
      "49": 6153,
      "Ġjordan": 6154,
      "Ġembar": 6155,
      "Ġliver": 6156,
      "Ġinfect": 6157,
      "uable": 6158,
      "Ġformat": 6159,
      "Ġsoviet": 6160,
      "Ġsupports": 6161,
      "gor": 6162,
      "ront": 6163,
      "Ġsomewhere": 6164,
      "Ġveteran": 6165,
      "Ġmoore": 6166,
      "Ġrecovery": 6167,
      "Ġtruck": 6168,
      "Ġcategory": 6169,
      "Ġnoticed": 6170,
      "agan": 6171,
      "Ġdepending": 6172,
      "Ġelectricity": 6173,
      "Ġmaximum": 6174,
      "Ġneu": 6175,
      "Ġinitiative": 6176,
      "Ġwalked": 6177,
      "Ġhits": 6178,
      "Ġstatistics": 6179,
      "kings": 6180,
      "Ġdiagn": 6181,
      "Ġpocket": 6182,
      "mad": 6183,
      "Ġdefeat": 6184,
      "Ġpayments": 6185,
      "Ġtypical": 6186,
      "Ġlatter": 6187,
      "Ġtested": 6188,
      "Ġrealized": 6189,
      "ulf": 6190,
      "xual": 6191,
      "Ġdecent": 6192,
      "ja": 6193,
      "Ġpromote": 6194,
      "Ġvacc": 6195,
      "Ġconver": 6196,
      "Ġfalling": 6197,
      "Ġtopic": 6198,
      "american": 6199,
      "Ġacademy": 6200,
      "Ġharass": 6201,
      "Ġbunch": 6202,
      "Ġdefined": 6203,
      "Ġjesus": 6204,
      "Ġads": 6205,
      "Ġspeaker": 6206,
      "Ġinvolving": 6207,
      "Ġfacilities": 6208,
      "Ġdisag": 6209,
      "Ġsoccer": 6210,
      "uated": 6211,
      "Ġcarl": 6212,
      "Ġnarrow": 6213,
      "Ġtranspa": 6214,
      "Ġparam": 6215,
      "Ġdesper": 6216,
      "wart": 6217,
      "stone": 6218,
      "rum": 6219,
      "Ġlawyers": 6220,
      "Ġdisney": 6221,
      "osition": 6222,
      "chen": 6223,
      "Ġadapt": 6224,
      "owa": 6225,
      "Ġoak": 6226,
      "Ġcourts": 6227,
      "nam": 6228,
      "Ġsatell": 6229,
      "ulous": 6230,
      "Ġangry": 6231,
      "Ġremark": 6232,
      "Ġminority": 6233,
      "Ġpir": 6234,
      "Ġtank": 6235,
      "37": 6236,
      "Ġduty": 6237,
      "Ġtransm": 6238,
      "Ġextent": 6239,
      "dem": 6240,
      "icious": 6241,
      "Ġofficially": 6242,
      "Ġweird": 6243,
      "Ġincredible": 6244,
      "Ġselected": 6245,
      "Ġminnes": 6246,
      "emen": 6247,
      "Ġties": 6248,
      "inations": 6249,
      "Ġbrothers": 6250,
      "Ġslowly": 6251,
      "Ġprofit": 6252,
      "Ġsessions": 6253,
      "Ġsole": 6254,
      "Ġtrop": 6255,
      "Ġdre": 6256,
      "Ġloan": 6257,
      "Ġpayment": 6258,
      "Ġmeetings": 6259,
      "Ġnavy": 6260,
      "Ġchose": 6261,
      "image": 6262,
      "Ġprecise": 6263,
      "Ġray": 6264,
      "bling": 6265,
      "Ġproperly": 6266,
      "Ġcounsel": 6267,
      "Ġforth": 6268,
      "iveness": 6269,
      "gb": 6270,
      "ws": 6271,
      "Ġmarc": 6272,
      "Ġclaiming": 6273,
      "Ġpaint": 6274,
      "Ġescape": 6275,
      "Ġchances": 6276,
      "Ġrepresentative": 6277,
      "Ġlimits": 6278,
      "icit": 6279,
      "Ġreferred": 6280,
      "Ġfake": 6281,
      "Ġchapter": 6282,
      "Ġpilot": 6283,
      "Ġroster": 6284,
      "Ġscotland": 6285,
      "Ġexpression": 6286,
      "Ġmanner": 6287,
      "\":": 6288,
      "Ġtickets": 6289,
      "Ġattacked": 6290,
      "vention": 6291,
      "Ġrobot": 6292,
      "Ġroot": 6293,
      "Ġtrees": 6294,
      "azi": 6295,
      "Ġformed": 6296,
      "ecess": 6297,
      "Ġcondem": 6298,
      "Ġasian": 6299,
      "post": 6300,
      "Ġsom": 6301,
      "osen": 6302,
      "ala": 6303,
      "Ġgalaxy": 6304,
      "Ġale": 6305,
      "pres": 6306,
      "Ġitaly": 6307,
      "Ġanswers": 6308,
      "Ġrab": 6309,
      "Ġsomebody": 6310,
      "Ġending": 6311,
      "Ġjoy": 6312,
      "Ġcontinuing": 6313,
      "Ġrecognize": 6314,
      "Ġturk": 6315,
      "Ġcomprom": 6316,
      "Ġnbc": 6317,
      "Ġdirected": 6318,
      "Ġassume": 6319,
      "intend": 6320,
      "Ġgranted": 6321,
      "Ġtel": 6322,
      "Ġbasketball": 6323,
      "Ġhouses": 6324,
      "Ġpad": 6325,
      "Ġrival": 6326,
      "Ġrepresentatives": 6327,
      "Ġcomparison": 6328,
      "Ġraising": 6329,
      "Ġwriters": 6330,
      "pu": 6331,
      "Ġseats": 6332,
      "iber": 6333,
      "Ġjosh": 6334,
      "ooks": 6335,
      "inson": 6336,
      "Ġrush": 6337,
      "Ġfeedback": 6338,
      "Ġminnesota": 6339,
      "uct": 6340,
      "Ġreveal": 6341,
      "Ġthor": 6342,
      "Ġempty": 6343,
      "Ġ46": 6344,
      "Ġavenue": 6345,
      "Ġblind": 6346,
      "Ġtony": 6347,
      "Ġirish": 6348,
      "world": 6349,
      "Ġassistance": 6350,
      "oration": 6351,
      "friend": 6352,
      "Ġalliance": 6353,
      "mes": 6354,
      "thy": 6355,
      "Ġchoices": 6356,
      "Ġdrew": 6357,
      "Ġletters": 6358,
      "Ġexposed": 6359,
      "Ġdallas": 6360,
      "Ġstronger": 6361,
      "Ġba": 6362,
      "Ġincredibly": 6363,
      "Ġreturning": 6364,
      "Ġpunish": 6365,
      "Ġprogramming": 6366,
      "iciency": 6367,
      "Ġmedium": 6368,
      "Ġgoods": 6369,
      "Ġanx": 6370,
      "Ġmixed": 6371,
      "Ġthreatened": 6372,
      "Ġpace": 6373,
      "Ġdriven": 6374,
      "Ġdrinking": 6375,
      "Ġcomplaint": 6376,
      "Ġprogressive": 6377,
      "Ġgrass": 6378,
      "Ġ64": 6379,
      "Ġprote": 6380,
      "Ġoblig": 6381,
      "Ġcannabis": 6382,
      "Ġinnoc": 6383,
      "who": 6384,
      "0000": 6385,
      "illy": 6386,
      "fast": 6387,
      "Ġincl": 6388,
      "rian": 6389,
      "Ġruled": 6390,
      "isms": 6391,
      "Ġsignal": 6392,
      "Ġelectronic": 6393,
      "Ġregistered": 6394,
      "Ġregister": 6395,
      "Ġrick": 6396,
      "Ġgotten": 6397,
      "Ġsheriff": 6398,
      "Ġuncon": 6399,
      "Ġarts": 6400,
      "Ġ47": 6401,
      "alf": 6402,
      "wan": 6403,
      "isan": 6404,
      "Ġencoun": 6405,
      "stit": 6406,
      "apse": 6407,
      "Ġstrongly": 6408,
      "df": 6409,
      "Ġom": 6410,
      "Ġreserve": 6411,
      "ded": 6412,
      "Ġclients": 6413,
      "Ġcontrolled": 6414,
      "dis": 6415,
      "Ġfinds": 6416,
      "Ġestimates": 6417,
      "Ġultimate": 6418,
      "Ġ43": 6419,
      "Ġhistoric": 6420,
      "Ġplastic": 6421,
      "Ġdozens": 6422,
      "Ġlinux": 6423,
      "Ġindependence": 6424,
      "lar": 6425,
      "Ġaffordable": 6426,
      "Ġcontributed": 6427,
      "Ġtaylor": 6428,
      "Ġnarrative": 6429,
      "cript": 6430,
      "Ġchat": 6431,
      "Ġsir": 6432,
      "Ġlyn": 6433,
      "ours": 6434,
      "rors": 6435,
      "Ġdestroyed": 6436,
      "05": 6437,
      "Ġenthus": 6438,
      "Ġkir": 6439,
      "Ġhay": 6440,
      "ument": 6441,
      "Ġhidden": 6442,
      "Ġenterpr": 6443,
      "Ġkeeps": 6444,
      "Ġsmo": 6445,
      "Ġaz": 6446,
      "Ġtaste": 6447,
      "rect": 6448,
      "Ġarguments": 6449,
      "lock": 6450,
      "Ġmachines": 6451,
      "Ġapartment": 6452,
      "Ġphenomen": 6453,
      "twitter": 6454,
      "Ġlgbt": 6455,
      "Ġodd": 6456,
      "sch": 6457,
      "Ġpoly": 6458,
      "95": 6459,
      "Ġpump": 6460,
      "Ġregularly": 6461,
      "Ġideal": 6462,
      "Ġlights": 6463,
      "Ġdefinition": 6464,
      "Ġconfront": 6465,
      "people": 6466,
      "Ġcontr": 6467,
      "asts": 6468,
      "izz": 6469,
      "Ġpenalty": 6470,
      "Ġauto": 6471,
      "Ġbath": 6472,
      "Ġchosen": 6473,
      "Ġextrem": 6474,
      "Ġwarming": 6475,
      "Ġspanish": 6476,
      "Ġmosc": 6477,
      "Ġdisaster": 6478,
      "ern": 6479,
      "Ġshadow": 6480,
      "Ġtower": 6481,
      "Ġplug": 6482,
      "Ġhang": 6483,
      "Ġpermanent": 6484,
      "Ġperfectly": 6485,
      "Ġbang": 6486,
      "Ġphones": 6487,
      "Ġtied": 6488,
      "Ġrejected": 6489,
      "Ġori": 6490,
      "regon": 6491,
      "Ġ1970": 6492,
      "Ġbrowser": 6493,
      "Ġconstantly": 6494,
      "consin": 6495,
      "Ġeuro": 6496,
      "raid": 6497,
      "Ġequival": 6498,
      "Ġconven": 6499,
      "Ġstuck": 6500,
      "eman": 6501,
      "Ġoregon": 6502,
      "aine": 6503,
      "from": 6504,
      "Ġnewly": 6505,
      "uration": 6506,
      "Ġmerely": 6507,
      "Ġfunny": 6508,
      "mann": 6509,
      "Ġsurgery": 6510,
      "Ġoverse": 6511,
      "Ġdrawn": 6512,
      "Ġcd": 6513,
      "Ġcrucial": 6514,
      "Ġanymore": 6515,
      "Ġamounts": 6516,
      "Ġinvestigators": 6517,
      "adelph": 6518,
      "Ġterrible": 6519,
      "Ġuniversal": 6520,
      "Ġsoph": 6521,
      "Ġjur": 6522,
      "Ġbrut": 6523,
      "Ġ41": 6524,
      "zen": 6525,
      "Ġau": 6526,
      "Ġacademic": 6527,
      "itarian": 6528,
      "Ġreasonable": 6529,
      "Ġobtained": 6530,
      "esy": 6531,
      "Ġdozen": 6532,
      "Ġsorry": 6533,
      "Ġroutine": 6534,
      "Ġaggressive": 6535,
      "Ġgov": 6536,
      "Ġatmosphere": 6537,
      "chain": 6538,
      "Ġspons": 6539,
      "apping": 6540,
      "ensity": 6541,
      "orrow": 6542,
      "icial": 6543,
      "Ġhabit": 6544,
      "celer": 6545,
      "Ġqueen": 6546,
      "Ġprize": 6547,
      "Ġjason": 6548,
      "65": 6549,
      "adelphia": 6550,
      "Ġscar": 6551,
      "Ġcitizen": 6552,
      "Ġregions": 6553,
      "Ġkh": 6554,
      "Ġextensive": 6555,
      "tering": 6556,
      "ographic": 6557,
      "Ġcapture": 6558,
      "Ġoutcome": 6559,
      "Ġpurs": 6560,
      "Ġbron": 6561,
      "Ġiowa": 6562,
      "Ġintellect": 6563,
      "Ġdiscovery": 6564,
      "ni": 6565,
      "ora": 6566,
      "Ġsanctions": 6567,
      "Ġnewsletter": 6568,
      "Ġwine": 6569,
      "Ġsugar": 6570,
      "Ġscenes": 6571,
      "Ġproducer": 6572,
      "Ġmoscow": 6573,
      "Ġcree": 6574,
      "Ġcaptured": 6575,
      "amin": 6576,
      "Ġworker": 6577,
      "Ġpent": 6578,
      "Ġcontem": 6579,
      "rage": 6580,
      "Ġalab": 6581,
      "Ġcompens": 6582,
      "Ġcomponents": 6583,
      "Ġmath": 6584,
      "cal": 6585,
      "Ġnegotiations": 6586,
      "Ġmanufacturing": 6587,
      "Ġinsight": 6588,
      "Ġspell": 6589,
      "Ġspain": 6590,
      "Ġfarmers": 6591,
      "Ġtip": 6592,
      "Ġtitles": 6593,
      "Ġbranch": 6594,
      "Ġdol": 6595,
      "Ġenable": 6596,
      "Ġow": 6597,
      "Ġinformed": 6598,
      "Ġfrustr": 6599,
      "agram": 6600,
      "Ġcorruption": 6601,
      "Ġgenerate": 6602,
      "Ġcontrols": 6603,
      "Ġunderstood": 6604,
      "Ġyellow": 6605,
      "Ġak": 6606,
      "Ġweekly": 6607,
      "Ġaccurate": 6608,
      "lix": 6609,
      "Ġwisconsin": 6610,
      "enders": 6611,
      "Ġdemands": 6612,
      "Ġstem": 6613,
      "Ġanticip": 6614,
      "Ġconstitutional": 6615,
      "Ġsituations": 6616,
      "Ġax": 6617,
      "64": 6618,
      "ills": 6619,
      "Ġrecording": 6620,
      "fol": 6621,
      "Ġempire": 6622,
      "Ġveterans": 6623,
      "rell": 6624,
      "Ġhopefully": 6625,
      "Ġpersonnel": 6626,
      "Ġexclusive": 6627,
      "Ġrelief": 6628,
      "Ġextract": 6629,
      "Ġpremium": 6630,
      "Ġmarsh": 6631,
      "Ġclubs": 6632,
      "licit": 6633,
      "tv": 6634,
      "34": 6635,
      "Ġextension": 6636,
      "Ġrecip": 6637,
      "Ġeverywhere": 6638,
      "Ġmanip": 6639,
      "ym": 6640,
      "Ġteaching": 6641,
      "bro": 6642,
      "month": 6643,
      "Ġexcess": 6644,
      "Ġvulnerable": 6645,
      "Ġitalian": 6646,
      "Ġshield": 6647,
      "fi": 6648,
      "Ġpasses": 6649,
      "Ġblocks": 6650,
      "Ġmanchester": 6651,
      "Ġstab": 6652,
      "Ġkent": 6653,
      "Ġpacific": 6654,
      "unction": 6655,
      "Ġapolog": 6656,
      "Ġlegacy": 6657,
      "rene": 6658,
      "Ġbusy": 6659,
      "inem": 6660,
      "Ġwrest": 6661,
      "Ġdelivery": 6662,
      "nis": 6663,
      "Ġvaluable": 6664,
      "Ġpurposes": 6665,
      "oming": 6666,
      "Ġcomplicated": 6667,
      "Ġhole": 6668,
      "Ġvr": 6669,
      "Ġfel": 6670,
      "Ġconcluded": 6671,
      "was": 6672,
      "Ġgift": 6673,
      "Ġobserved": 6674,
      "Ġaimed": 6675,
      "Ġtracks": 6676,
      "Ġaccomp": 6677,
      "Ġhind": 6678,
      "Ġcameras": 6679,
      "Ġprimarily": 6680,
      "Ġdescription": 6681,
      "Ġveget": 6682,
      "Ġinstalled": 6683,
      "Ġrook": 6684,
      "Ġgat": 6685,
      "Ġaspects": 6686,
      "essed": 6687,
      "39": 6688,
      "Ġpriority": 6689,
      "Ġcontracts": 6690,
      "Ġenemies": 6691,
      "Ġscoring": 6692,
      "idency": 6693,
      "Ġont": 6694,
      "Ġfee": 6695,
      "Ġracial": 6696,
      "aid": 6697,
      "Ġsurvive": 6698,
      "itals": 6699,
      "getty": 6700,
      "Ġexpectations": 6701,
      "Ġsolve": 6702,
      "Ġdegrees": 6703,
      "Ġcompre": 6704,
      "Ġconspir": 6705,
      "Ġdust": 6706,
      "Ġholiday": 6707,
      "Ġwarri": 6708,
      "Ġarsen": 6709,
      "Ġreputation": 6710,
      "Ġorganized": 6711,
      "Ġnavig": 6712,
      "Ġprospect": 6713,
      "Ġpounds": 6714,
      "Ġuncertain": 6715,
      "Ġstrikes": 6716,
      "Ġalabama": 6717,
      "Ġphiladelphia": 6718,
      "%.": 6719,
      "01": 6720,
      "Ġjoseph": 6721,
      "Ġtransit": 6722,
      "Ġfootage": 6723,
      "stal": 6724,
      "Ġcompete": 6725,
      "ht": 6726,
      "Ġacceler": 6727,
      "Ġstim": 6728,
      "Ġforever": 6729,
      "Ġmaps": 6730,
      "iser": 6731,
      "owed": 6732,
      "Ġfalls": 6733,
      "dog": 6734,
      "Ġautomatically": 6735,
      "Ġdna": 6736,
      "Ġillustr": 6737,
      "Ġsuccessfully": 6738,
      "rec": 6739,
      "Ġestablishment": 6740,
      "Ġexplanation": 6741,
      "Ġafraid": 6742,
      "Ġattended": 6743,
      "Ġelev": 6744,
      "Ġstrategic": 6745,
      "Ġfirms": 6746,
      "Ġprivile": 6747,
      "Ġenjoyed": 6748,
      "Ġproved": 6749,
      "Ġawards": 6750,
      "Ġgarden": 6751,
      "Ġgate": 6752,
      "Ġingred": 6753,
      "acare": 6754,
      "Ġconce": 6755,
      "Ġgig": 6756,
      "iner": 6757,
      "Ġoperate": 6758,
      "gun": 6759,
      "Ġfinger": 6760,
      "Ġaffili": 6761,
      "Ġreddit": 6762,
      "alle": 6763,
      "iments": 6764,
      "Ġdinner": 6765,
      "Ġtomorrow": 6766,
      "Ġhorse": 6767,
      "Ġstun": 6768,
      "Ġalien": 6769,
      "Ġconsumption": 6770,
      "Ġplate": 6771,
      "ingu": 6772,
      "Ġ250": 6773,
      "Ġinterface": 6774,
      "Ġastron": 6775,
      "Ġexists": 6776,
      "Ġscenario": 6777,
      "Ġcomedy": 6778,
      "Ġunusual": 6779,
      "hum": 6780,
      "Ġdict": 6781,
      "Ġespn": 6782,
      "Ġpossession": 6783,
      "onom": 6784,
      "Ġsnap": 6785,
      "Ġtransgender": 6786,
      "eu": 6787,
      "Ġorange": 6788,
      "Ġufc": 6789,
      "Ġamid": 6790,
      "hop": 6791,
      "Ġsympt": 6792,
      "osis": 6793,
      "Ġphr": 6794,
      "Ġbry": 6795,
      "Ġfounded": 6796,
      "Ġatlanta": 6797,
      "Ġmarvel": 6798,
      "Ġga": 6799,
      "Ġreviews": 6800,
      "Ġsteam": 6801,
      "Ġcollected": 6802,
      "Ġcorn": 6803,
      "Ġjac": 6804,
      "Ġlady": 6805,
      "Ġshock": 6806,
      "Ġtechniques": 6807,
      "Ġracing": 6808,
      "Ġwonderful": 6809,
      "Ġjournalist": 6810,
      "Ġtackle": 6811,
      "iana": 6812,
      "Ġsoul": 6813,
      "sole": 6814,
      "Ġmarine": 6815,
      "Ġresulting": 6816,
      "inity": 6817,
      "pal": 6818,
      "Ġstations": 6819,
      "Ġzealand": 6820,
      "Ġprominent": 6821,
      "Ġdoors": 6822,
      "Ġdistinct": 6823,
      "Ġnominee": 6824,
      "Ġdrawing": 6825,
      "Ġneutral": 6826,
      "Ġcomputers": 6827,
      "Ġinnovation": 6828,
      "Ġintense": 6829,
      "Ġnormally": 6830,
      "Ġpermission": 6831,
      "Ġobst": 6832,
      "Ġmini": 6833,
      "Ġunif": 6834,
      "Ġdiam": 6835,
      "Ġfactory": 6836,
      "Ġwarrant": 6837,
      "Ġengaged": 6838,
      "Ġcomics": 6839,
      "Ġarena": 6840,
      "amacare": 6841,
      "Ġmonitor": 6842,
      "itar": 6843,
      "Ġrarely": 6844,
      "Ġinev": 6845,
      "Ġecho": 6846,
      "Ġsum": 6847,
      "Ġprinciples": 6848,
      "Ġlandsc": 6849,
      "Ġreferences": 6850,
      "Ġcrop": 6851,
      "osing": 6852,
      "Ġaer": 6853,
      "lers": 6854,
      "Ġgif": 6855,
      "?'": 6856,
      "Ġthick": 6857,
      "rer": 6858,
      "Ġstrip": 6859,
      "Ġcited": 6860,
      "etime": 6861,
      "Ġrepresented": 6862,
      "uous": 6863,
      "Ġvisited": 6864,
      "Ġbernie": 6865,
      "Ġlane": 6866,
      "Ġpray": 6867,
      "Ġokay": 6868,
      "Ġsettings": 6869,
      "idelines": 6870,
      "Ġstruggling": 6871,
      "Ġliby": 6872,
      "Ġscreens": 6873,
      "profit": 6874,
      "Ġsimpl": 6875,
      "Ġmccain": 6876,
      "Ġhub": 6877,
      "Ġentit": 6878,
      "Ġbacked": 6879,
      "Ġlobby": 6880,
      "Ġrice": 6881,
      "Ġdepression": 6882,
      "Ġanton": 6883,
      "Ġstrict": 6884,
      "eng": 6885,
      "Ġkat": 6886,
      "fir": 6887,
      "Ġmilk": 6888,
      "Ġbanned": 6889,
      "Ġvital": 6890,
      "Ġgetty": 6891,
      "spec": 6892,
      "olis": 6893,
      "Ġlosses": 6894,
      "Ġavo": 6895,
      "Ġtaught": 6896,
      "Ġfiscal": 6897,
      "Ġliquid": 6898,
      "Ġridic": 6899,
      "Ġuncom": 6900,
      "ibilities": 6901,
      "Ġparticipate": 6902,
      "ilton": 6903,
      "Ġentering": 6904,
      "100": 6905,
      "Ġprofession": 6906,
      "Ġfault": 6907,
      "Ġcreates": 6908,
      "Ġcircuit": 6909,
      "quarters": 6910,
      "eda": 6911,
      "Ġmainly": 6912,
      "found": 6913,
      "Ġdiego": 6914,
      "org": 6915,
      "Ġstack": 6916,
      "Ġdance": 6917,
      "Ġemerged": 6918,
      "uine": 6919,
      "Ġloyal": 6920,
      "Ġfred": 6921,
      "Ġguardian": 6922,
      "areness": 6923,
      "Ġeag": 6924,
      "Ġpeak": 6925,
      "Ġretired": 6926,
      "Ġgreg": 6927,
      "Ġaver": 6928,
      "Ġinterviews": 6929,
      "Ġpropag": 6930,
      "Ġdiscrimination": 6931,
      "Ġrif": 6932,
      "Ġabc": 6933,
      "Ġimplementation": 6934,
      "izon": 6935,
      "Ġgut": 6936,
      "Ġmars": 6937,
      "ye": 6938,
      "rics": 6939,
      "interest": 6940,
      "Ġloud": 6941,
      "Ġmarked": 6942,
      "Ġboot": 6943,
      "gorith": 6944,
      "Ġwelf": 6945,
      "Ġsimilarly": 6946,
      "Ġborrow": 6947,
      "Ġgenerated": 6948,
      "Ġturkish": 6949,
      "Ġviewers": 6950,
      "Ġexposure": 6951,
      "Ġportion": 6952,
      "Ġwalker": 6953,
      "Ġmatthe": 6954,
      "Ġhenry": 6955,
      "actions": 6956,
      "Ġtoler": 6957,
      "Ġfeelings": 6958,
      "Ġwelfare": 6959,
      "Ġjay": 6960,
      "phones": 6961,
      "upid": 6962,
      "Ġequivalent": 6963,
      "Ġlind": 6964,
      "Ġfc": 6965,
      "Ġfeaturing": 6966,
      "Ġfighter": 6967,
      "Ġfiction": 6968,
      "Ġrepro": 6969,
      "auc": 6970,
      "ugh": 6971,
      "aska": 6972,
      "Ġarc": 6973,
      "mate": 6974,
      "Ġmenu": 6975,
      "Ġrober": 6976,
      "oster": 6977,
      "irect": 6978,
      "Ġminds": 6979,
      "Ġdescribes": 6980,
      "Ġvisitors": 6981,
      "Ġxbox": 6982,
      "Ġchip": 6983,
      "Ġts": 6984,
      "Ġwaters": 6985,
      "Ġrs": 6986,
      "Ġenorm": 6987,
      "aire": 6988,
      "Ġouts": 6989,
      "Ġfought": 6990,
      "aving": 6991,
      "Ġresource": 6992,
      "Ġflaw": 6993,
      "Ġlaid": 6994,
      "Ġreven": 6995,
      "Ġtrigger": 6996,
      "edia": 6997,
      "Ġalgorith": 6998,
      "amsung": 6999,
      "icy": 7000,
      "Ġsaved": 7001,
      "veland": 7002,
      "Ġbehalf": 7003,
      "non": 7004,
      "Ġhitting": 7005,
      "Ġcu": 7006,
      "Ġanthony": 7007,
      "Ġcenters": 7008,
      "Ġhorror": 7009,
      "46": 7010,
      "ouver": 7011,
      "Ġchallenging": 7012,
      "Ġpatterns": 7013,
      "Ġbug": 7014,
      "burgh": 7015,
      "ifications": 7016,
      "Ġprepare": 7017,
      "Ġfriendly": 7018,
      "berry": 7019,
      "Ġpatrick": 7020,
      "Ġjoining": 7021,
      "Ġheaded": 7022,
      "Ġconcert": 7023,
      "ena": 7024,
      "front": 7025,
      "ylv": 7026,
      "Ġgenuine": 7027,
      "Ġformal": 7028,
      "Ġigno": 7029,
      "rass": 7030,
      "Ġyield": 7031,
      "Ġsmoke": 7032,
      "Ġframework": 7033,
      "Ġincent": 7034,
      "Ġphysic": 7035,
      "Ġreader": 7036,
      "Ġhook": 7037,
      "Ġterrorists": 7038,
      "Ġwebsites": 7039,
      "rators": 7040,
      "Ġcommissioner": 7041,
      "Ġstable": 7042,
      "Ġsha": 7043,
      "ancouver": 7044,
      "Ġvisible": 7045,
      "Ġhadn": 7046,
      "Ġlucky": 7047,
      "Ġprince": 7048,
      "Ġcameron": 7049,
      "Ġliberty": 7050,
      "Ġadvocates": 7051,
      "Ġproven": 7052,
      "Ġepisodes": 7053,
      "uls": 7054,
      "Ġresulted": 7055,
      "Ġblocked": 7056,
      "Ġsmooth": 7057,
      "Ġovers": 7058,
      "rific": 7059,
      "Ġviet": 7060,
      "Ġhyper": 7061,
      "Ġkansas": 7062,
      "Ġcorporations": 7063,
      "31": 7064,
      "Ġobamacare": 7065,
      "Ġ%": 7066,
      "Ġroads": 7067,
      "Ġconvicted": 7068,
      "ashes": 7069,
      "Ġnato": 7070,
      "Ġbund": 7071,
      "Ġtes": 7072,
      "ucky": 7073,
      "cles": 7074,
      "Ġinvent": 7075,
      "tes": 7076,
      "Ġaspect": 7077,
      "Ġupset": 7078,
      "Ġadventure": 7079,
      "Ġwalls": 7080,
      "Ġcomponent": 7081,
      "Ġrely": 7082,
      "rough": 7083,
      "Ġunemployment": 7084,
      "Ġcomplaints": 7085,
      "athy": 7086,
      "page": 7087,
      "Ġscandal": 7088,
      "Ġfantastic": 7089,
      "Ġroles": 7090,
      "Ġunn": 7091,
      "fs": 7092,
      "bles": 7093,
      "Ġgrid": 7094,
      "Ġwithdraw": 7095,
      "donald": 7096,
      "Ġward": 7097,
      "otes": 7098,
      "Ġracist": 7099,
      "Ġrank": 7100,
      "Ġtwenty": 7101,
      "Ġadopted": 7102,
      "55": 7103,
      "pat": 7104,
      "Ġtail": 7105,
      "Ġbin": 7106,
      "Ġshr": 7107,
      "rete": 7108,
      "Ġpig": 7109,
      "Ġfrag": 7110,
      "hentic": 7111,
      "Ġupgrade": 7112,
      "Ġexplicit": 7113,
      "Ġrestrictions": 7114,
      "eding": 7115,
      "Ġroman": 7116,
      "Ġlux": 7117,
      "Ġlistening": 7118,
      "Ġexit": 7119,
      "Ġarray": 7120,
      "these": 7121,
      "Ġthousand": 7122,
      "fig": 7123,
      "oric": 7124,
      "Ġphilosophy": 7125,
      "Ġprosecutors": 7126,
      "Ġrescue": 7127,
      "Ġanger": 7128,
      "anny": 7129,
      "Ġrural": 7130,
      "Ġcoaches": 7131,
      "Ġperce": 7132,
      "Ġhired": 7133,
      "Ġexception": 7134,
      "Ġcampaigns": 7135,
      "Ġbub": 7136,
      "Ġbird": 7137,
      "Ġelig": 7138,
      "Ġbarely": 7139,
      "pread": 7140,
      "ylvania": 7141,
      "Ġliked": 7142,
      "Ġpapers": 7143,
      "Ġwhenever": 7144,
      "Ġwides": 7145,
      "88": 7146,
      "nc": 7147,
      "Ġ52": 7148,
      "Ġgained": 7149,
      "Ġtonight": 7150,
      "gthe": 7151,
      "ashing": 7152,
      "Ġregulation": 7153,
      "ji": 7154,
      "Ġboat": 7155,
      "cut": 7156,
      "Ġpresum": 7157,
      "Ġgreek": 7158,
      "Ġcollective": 7159,
      "Ġtweeted": 7160,
      "hetic": 7161,
      "Ġnaturally": 7162,
      "Ġrear": 7163,
      "Ġswim": 7164,
      "Ġporn": 7165,
      "etts": 7166,
      "Ġconsole": 7167,
      "Ġsanta": 7168,
      "Ġpel": 7169,
      "even": 7170,
      "Ġfailing": 7171,
      "osexual": 7172,
      "Ġmarks": 7173,
      "Ġsettlement": 7174,
      "Ġcbs": 7175,
      "Ġequally": 7176,
      "Ġheading": 7177,
      "Ġcul": 7178,
      "Ġ1999": 7179,
      "Ġpenns": 7180,
      "Ġsamsung": 7181,
      "Ġneighbour": 7182,
      "Ġsummit": 7183,
      "Ġharry": 7184,
      "Ġconscious": 7185,
      "Ġcircle": 7186,
      "Ġunclear": 7187,
      "isa": 7188,
      "Ġreferring": 7189,
      "Ġarrange": 7190,
      "Ġdynamic": 7191,
      "Ġfoss": 7192,
      "Ġimprovements": 7193,
      "making": 7194,
      "Ġprocesses": 7195,
      "Ġillness": 7196,
      "Ġreducing": 7197,
      "Ġvoter": 7198,
      "Ġprocessing": 7199,
      "usive": 7200,
      "ascript": 7201,
      "lu": 7202,
      "Ġdevast": 7203,
      "Ġreduction": 7204,
      "Ġjury": 7205,
      "Ġinquir": 7206,
      "Ġhunt": 7207,
      "Ġdeliber": 7208,
      "Ġbears": 7209,
      "Ġroy": 7210,
      "Ġequality": 7211,
      "Ġdestruction": 7212,
      "...": 7213,
      "Ġaustin": 7214,
      "anges": 7215,
      "Ġships": 7216,
      "Ġstol": 7217,
      "Ġrecommended": 7218,
      "Ġtechnique": 7219,
      "ilipp": 7220,
      "Ġnsa": 7221,
      "Ġfiref": 7222,
      "Ġdistur": 7223,
      "etary": 7224,
      "herent": 7225,
      "Ġmining": 7226,
      "Ġanybody": 7227,
      "Ġhardly": 7228,
      "Ġallen": 7229,
      "Ġspaces": 7230,
      "Ġios": 7231,
      "pack": 7232,
      "Ġreaching": 7233,
      "lessly": 7234,
      "fa": 7235,
      "Ġgross": 7236,
      "Ġsony": 7237,
      "power": 7238,
      "Ġdiversity": 7239,
      "Ġarabia": 7240,
      "Ġnoise": 7241,
      "Ġcommander": 7242,
      "Ġunw": 7243,
      "antic": 7244,
      "Ġsalary": 7245,
      "Ġcontroversy": 7246,
      "Ġbrill": 7247,
      "Ġactivist": 7248,
      "Ġsufficient": 7249,
      "Ġawareness": 7250,
      "bled": 7251,
      "lan": 7252,
      "Ġinterior": 7253,
      "Ġsenators": 7254,
      "Ġmissile": 7255,
      "Ġvancouver": 7256,
      "Ġspar": 7257,
      "Ġgonna": 7258,
      "angel": 7259,
      "Ġgrav": 7260,
      "Ġknight": 7261,
      "Ġutil": 7262,
      "Ġprotocol": 7263,
      "Ġ?": 7264,
      "Ġshit": 7265,
      "Ġvegas": 7266,
      "Ġbeliefs": 7267,
      "Ġholy": 7268,
      "yer": 7269,
      "Ġproducing": 7270,
      "Ġrecover": 7271,
      "oured": 7272,
      "Ġalbert": 7273,
      "Ġtill": 7274,
      "Ġnu": 7275,
      "Ġcream": 7276,
      "Ġwidespread": 7277,
      "turn": 7278,
      "core": 7279,
      "Ġremarks": 7280,
      "Ġcabinet": 7281,
      "Ġoverwhelming": 7282,
      "%)": 7283,
      "hour": 7284,
      "Ġexternal": 7285,
      "Ġchicken": 7286,
      "away": 7287,
      "Ġarsenal": 7288,
      "Ġcomprehens": 7289,
      "Ġrecognition": 7290,
      "Ġanonymous": 7291,
      "sels": 7292,
      "Ġlicens": 7293,
      "Ġcontribute": 7294,
      "Ġml": 7295,
      "yard": 7296,
      "Ġplatforms": 7297,
      "rendum": 7298,
      "Ġconvin": 7299,
      "Ġlists": 7300,
      "riers": 7301,
      "Ġprinciple": 7302,
      "Ġranked": 7303,
      "ifies": 7304,
      "Ġghost": 7305,
      "Ġpresc": 7306,
      "Ġbeauty": 7307,
      "Ġsubur": 7308,
      "Ġperpet": 7309,
      "Ġans": 7310,
      "xit": 7311,
      "Ġsettle": 7312,
      "Ġpennsylvania": 7313,
      "Ġsurf": 7314,
      "Ġcollapse": 7315,
      "rical": 7316,
      "ighter": 7317,
      "Ġcrown": 7318,
      "Ġdrama": 7319,
      "Ġhealthcare": 7320,
      "Ġfortun": 7321,
      "Ġcontaining": 7322,
      "Ġmidfield": 7323,
      "Ġsuggesting": 7324,
      "Ġhomeless": 7325,
      "Ġrevel": 7326,
      "Ġbloom": 7327,
      "Ġmetro": 7328,
      "Ġtemporary": 7329,
      "Ġ51": 7330,
      "iration": 7331,
      "Ġsensitive": 7332,
      "ishes": 7333,
      "Ġpitt": 7334,
      "Ġdrum": 7335,
      "achus": 7336,
      "Ġimprovement": 7337,
      "Ġtu": 7338,
      "Ġbrook": 7339,
      "Ġaccus": 7340,
      "Ġfruit": 7341,
      "Ġtopics": 7342,
      "onso": 7343,
      "agger": 7344,
      "uing": 7345,
      "Ġscholars": 7346,
      "Ġconspiracy": 7347,
      "Ġachieved": 7348,
      "Ġhighlights": 7349,
      "mit": 7350,
      "Ġanderson": 7351,
      "Ġproviders": 7352,
      "Ġlets": 7353,
      "istent": 7354,
      "Ġbegun": 7355,
      "Ġsty": 7356,
      "Ġbars": 7357,
      "Ġintroduction": 7358,
      "Ġannivers": 7359,
      "Ġcorporation": 7360,
      "Ġpetition": 7361,
      "ikes": 7362,
      "Ġchristians": 7363,
      "oning": 7364,
      "Ġambass": 7365,
      "Ġpatch": 7366,
      "timore": 7367,
      "Ġrav": 7368,
      "Ġapi": 7369,
      "Ġcasual": 7370,
      "Ġscores": 7371,
      "Ġross": 7372,
      "Ġclock": 7373,
      "ounced": 7374,
      "Ġownership": 7375,
      "why": 7376,
      "Ġdeeper": 7377,
      "Ġcleveland": 7378,
      "Ġloans": 7379,
      "asion": 7380,
      "Ġstupid": 7381,
      "pg": 7382,
      "Ġintellectual": 7383,
      "Ġreferendum": 7384,
      "luding": 7385,
      "mal": 7386,
      "Ġinvestigating": 7387,
      "Ġfoods": 7388,
      "Ġnoting": 7389,
      "plus": 7390,
      "Ġbonus": 7391,
      "Ġtren": 7392,
      "Ġclosing": 7393,
      "Ġasks": 7394,
      "Ġfallen": 7395,
      "Ġrecognized": 7396,
      "hr": 7397,
      "Ġsurely": 7398,
      "Ġgent": 7399,
      "Ġstake": 7400,
      "Ġdiscussions": 7401,
      "Ġdragon": 7402,
      "Ġinject": 7403,
      "ouch": 7404,
      "Ġhandful": 7405,
      "Ġdod": 7406,
      "Ġquote": 7407,
      "Ġactors": 7408,
      "Ġspokesperson": 7409,
      "Ġinvestigate": 7410,
      "Ġignore": 7411,
      "Ġserves": 7412,
      "iler": 7413,
      "Ġcher": 7414,
      "igen": 7415,
      "Ġdump": 7416,
      "Ġlayer": 7417,
      "Ġthrown": 7418,
      "Ġgiants": 7419,
      "Ġcarefully": 7420,
      "Ġai": 7421,
      "Ġjudges": 7422,
      "Ġglobe": 7423,
      "Ġforgot": 7424,
      "Ġpractical": 7425,
      "Ġblast": 7426,
      "ested": 7427,
      "Ġrookie": 7428,
      "Ġabb": 7429,
      "Ġconnections": 7430,
      "Ġphilipp": 7431,
      "mat": 7432,
      "mont": 7433,
      "Ġlanguages": 7434,
      "bell": 7435,
      "ali": 7436,
      "Ġremem": 7437,
      "Ġka": 7438,
      "Ġharris": 7439,
      "Ġinvited": 7440,
      "achusetts": 7441,
      "Ġprogramme": 7442,
      "esc": 7443,
      "Ġtouchdown": 7444,
      "Ġlogic": 7445,
      "Ġopinions": 7446,
      "Ġballot": 7447,
      "Ġdemonst": 7448,
      "Ġattacking": 7449,
      "Ġrolling": 7450,
      "flix": 7451,
      "high": 7452,
      "Ġcourtesy": 7453,
      "Ġinvolvement": 7454,
      "Ġscan": 7455,
      "Ġpride": 7456,
      "ez": 7457,
      "Ġiranian": 7458,
      "Ġpipeline": 7459,
      "itors": 7460,
      "Ġrapidly": 7461,
      "Ġgrap": 7462,
      "Ġbehaviour": 7463,
      "Ġchel": 7464,
      "Ġott": 7465,
      "icon": 7466,
      "Ġindicate": 7467,
      "mod": 7468,
      "Ġcolors": 7469,
      "Ġbuc": 7470,
      "fund": 7471,
      "Ġlt": 7472,
      "Ġib": 7473,
      "Ġdil": 7474,
      "Ġpicks": 7475,
      "Ġsuspended": 7476,
      "Ġdave": 7477,
      "Ġwages": 7478,
      "Ġdisagree": 7479,
      "lah": 7480,
      "Ġanniversary": 7481,
      "ihad": 7482,
      "ito": 7483,
      "Ġethnic": 7484,
      "orse": 7485,
      "Ġbuzz": 7486,
      "Ġswing": 7487,
      "Ġattempting": 7488,
      "Ġfears": 7489,
      "js": 7490,
      "ria": 7491,
      "inois": 7492,
      "Ġves": 7493,
      "Ġmovements": 7494,
      "Ġpublication": 7495,
      "Ġtoy": 7496,
      "Ġjavascript": 7497,
      "ologists": 7498,
      "Ġsuspected": 7499,
      "Ġgallery": 7500,
      "Ġconvinced": 7501,
      "ulating": 7502,
      "Ġdramatic": 7503,
      "Ġcivilians": 7504,
      "Ġramp": 7505,
      "Ġgreece": 7506,
      "Ġheroes": 7507,
      "66": 7508,
      "Ġtie": 7509,
      "Ġtut": 7510,
      "Ġtone": 7511,
      "Ġinflation": 7512,
      "Ġpresidency": 7513,
      "Ġgathered": 7514,
      "Ġshopping": 7515,
      "Ġrebu": 7516,
      "Ġhumanity": 7517,
      "08": 7518,
      "Ġdisrupt": 7519,
      "Ġmassachusetts": 7520,
      "Ġstructures": 7521,
      "Ġpassword": 7522,
      "Ġresign": 7523,
      "Ġmonthly": 7524,
      "Ġeconomics": 7525,
      "Ġblockchain": 7526,
      "Ġjunior": 7527,
      "Ġthrowing": 7528,
      "aka": 7529,
      "ique": 7530,
      "Ġ54": 7531,
      "hd": 7532,
      "Ġconversations": 7533,
      "Ġextend": 7534,
      "Ġseemingly": 7535,
      "heast": 7536,
      "Ġabd": 7537,
      "Ġdispl": 7538,
      "Ġtracking": 7539,
      "ima": 7540,
      "Ġtestim": 7541,
      "station": 7542,
      "Ġlegislative": 7543,
      "Ġhan": 7544,
      "Ġembarrass": 7545,
      "Ġtips": 7546,
      "Ġexceed": 7547,
      "mic": 7548,
      "Ġauthentic": 7549,
      "azz": 7550,
      "Ġinner": 7551,
      "Ġalph": 7552,
      "77": 7553,
      "Ġislands": 7554,
      "Ġversus": 7555,
      "Ġneck": 7556,
      "Ġpassengers": 7557,
      "Ġ1960": 7558,
      "Ġraces": 7559,
      "Ġhint": 7560,
      "case": 7561,
      "teen": 7562,
      "may": 7563,
      "Ġpurchased": 7564,
      "lad": 7565,
      "Ġjustin": 7566,
      "Ġpromises": 7567,
      "Ġlewis": 7568,
      "ira": 7569,
      "Ġindicated": 7570,
      "Ġmonitoring": 7571,
      "Ġincidents": 7572,
      "Ġliverpool": 7573,
      "Ġhighway": 7574,
      "Ġoffices": 7575,
      "Ġabst": 7576,
      "Ġimplemented": 7577,
      "Ġdefine": 7578,
      "Ġgray": 7579,
      "Ġplain": 7580,
      "Ġpersonality": 7581,
      "intendo": 7582,
      "Ġgrade": 7583,
      "Ġcontained": 7584,
      "market": 7585,
      "ijing": 7586,
      "Ġvirtually": 7587,
      "Ġexpanded": 7588,
      "Ġbaltimore": 7589,
      "Ġmerc": 7590,
      "supp": 7591,
      "Ġassessment": 7592,
      "Ġcav": 7593,
      "Ġhoward": 7594,
      "Ġstrengthe": 7595,
      "Ġ2019": 7596,
      "Ġeve": 7597,
      "Ġkeys": 7598,
      "Ġtrained": 7599,
      "imm": 7600,
      "Ġbutter": 7601,
      "Ġincorpor": 7602,
      "owned": 7603,
      "Ġindustries": 7604,
      "Ġnotion": 7605,
      "Ġuniversities": 7606,
      "ington": 7607,
      "Ġmusical": 7608,
      "Ġku": 7609,
      "Ġglad": 7610,
      "Ġvib": 7611,
      "Ġsed": 7612,
      "Ġtens": 7613,
      "Ġskept": 7614,
      "Ġcolumbia": 7615,
      "Ġprotecting": 7616,
      "Ġcovers": 7617,
      "Ġimproving": 7618,
      "avell": 7619,
      "Ġreads": 7620,
      "Ġliberals": 7621,
      "reprene": 7622,
      "Ġhip": 7623,
      "Ġsuffer": 7624,
      "rac": 7625,
      "Ġadmit": 7626,
      "Ġlegs": 7627,
      "Ġillinois": 7628,
      "Ġspeaks": 7629,
      "Ġopens": 7630,
      "Ġlegitimate": 7631,
      "Ġrecipe": 7632,
      "Ġuber": 7633,
      "rator": 7634,
      "Ġdelic": 7635,
      "Ġsymptoms": 7636,
      "Ġvary": 7637,
      "Ġheadquarters": 7638,
      "last": 7639,
      "Ġmonster": 7640,
      "Ġaccompan": 7641,
      "mi": 7642,
      "Ġwolf": 7643,
      "only": 7644,
      "nedy": 7645,
      "Ġdenver": 7646,
      "Ġprofits": 7647,
      "aron": 7648,
      "Ġsatellite": 7649,
      "Ġlev": 7650,
      "Ġgaza": 7651,
      "Ġguarantee": 7652,
      "Ġportland": 7653,
      "Ġmembership": 7654,
      "oen": 7655,
      "Ġelder": 7656,
      "Ġsurviv": 7657,
      "Ġhandling": 7658,
      "expected": 7659,
      "Ġlatin": 7660,
      "flow": 7661,
      "Ġva": 7662,
      "Ġiraqi": 7663,
      "Ġhanded": 7664,
      "Ġdesert": 7665,
      "udes": 7666,
      "Ġracism": 7667,
      "Ġpant": 7668,
      "fo": 7669,
      "bits": 7670,
      "Ġbutt": 7671,
      "Ġattached": 7672,
      "Ġgrounds": 7673,
      "gent": 7674,
      "Ġhurric": 7675,
      "Ġages": 7676,
      "Ġcompare": 7677,
      "Ġtemperatures": 7678,
      "Ġestimate": 7679,
      "Ġshout": 7680,
      "thon": 7681,
      "neys": 7682,
      "dam": 7683,
      "Ġcinem": 7684,
      "Ġscientist": 7685,
      "arms": 7686,
      "Ġ1998": 7687,
      "Ġrhet": 7688,
      "Ġcontributions": 7689,
      "Ġbanking": 7690,
      "Ġspokeswoman": 7691,
      "Ġviewed": 7692,
      "Ġguitar": 7693,
      "Ġinfo": 7694,
      "Ġbread": 7695,
      "Ġdomain": 7696,
      "Ġtrem": 7697,
      "aning": 7698,
      "Ġ56": 7699,
      "Ġcrus": 7700,
      "Ġenormous": 7701,
      "Ġdisappear": 7702,
      "Ġsamples": 7703,
      "Ġformula": 7704,
      "Ġdiscip": 7705,
      "Ġgains": 7706,
      "Ġefficiency": 7707,
      "Ġwarn": 7708,
      "Ġkitchen": 7709,
      "Ġpix": 7710,
      "rolled": 7711,
      "Ġgenetic": 7712,
      "Ġ53": 7713,
      "Ġchest": 7714,
      "Ġlowest": 7715,
      "ommod": 7716,
      "Ġug": 7717,
      "ustration": 7718,
      "Ġbelt": 7719,
      "Ġconsistently": 7720,
      "Ġreplacement": 7721,
      "Ġentreprene": 7722,
      "Ġstolen": 7723,
      "Ġtent": 7724,
      "Ġclothes": 7725,
      "Ġboom": 7726,
      "!)": 7727,
      "step": 7728,
      "Ġappreciate": 7729,
      "Ġsurge": 7730,
      "Ġartific": 7731,
      "comp": 7732,
      "bered": 7733,
      "Ġchamber": 7734,
      "Ġtravell": 7735,
      "Ġindiana": 7736,
      "Ġinval": 7737,
      "Ġaccommod": 7738,
      "Ġnin": 7739,
      "uted": 7740,
      "%,": 7741,
      "04": 7742,
      "Ġjoke": 7743,
      "Ġunp": 7744,
      "Ġbirds": 7745,
      "Ġkennedy": 7746,
      "Ġfate": 7747,
      "Ġtasks": 7748,
      "itage": 7749,
      "Ġchecks": 7750,
      "ila": 7751,
      "roc": 7752,
      "Ġwol": 7753,
      "Ġcareful": 7754,
      "Ġni": 7755,
      "Ġnomination": 7756,
      "bow": 7757,
      "Ġsurvival": 7758,
      "Ġforecast": 7759,
      "umes": 7760,
      "ivals": 7761,
      "Ġmistakes": 7762,
      "Ġnetflix": 7763,
      "Ġencry": 7764,
      "Ġintervention": 7765,
      "Ġmanaging": 7766,
      "Ġkm": 7767,
      "Ġgenes": 7768,
      "Ġcovering": 7769,
      "type": 7770,
      "trans": 7771,
      "Ġextraord": 7772,
      "Ġontario": 7773,
      "Ġranks": 7774,
      "Ġpier": 7775,
      "Ġmall": 7776,
      "Ġbesides": 7777,
      "Ġreceiver": 7778,
      "Ġphotograph": 7779,
      "Ġaddressed": 7780,
      "Ġinvestigations": 7781,
      "Ġdistributed": 7782,
      "isp": 7783,
      "Ġpor": 7784,
      "Ġcig": 7785,
      "Ġnintendo": 7786,
      "Ġfulf": 7787,
      "Ġfunded": 7788,
      "Ġvirus": 7789,
      "Ġleaf": 7790,
      "Ġassass": 7791,
      "Ġmexican": 7792,
      "Ġburning": 7793,
      "Ġtransactions": 7794,
      "Ġplayoffs": 7795,
      "Ġusage": 7796,
      "usted": 7797,
      "Ġbreaks": 7798,
      "Ġstayed": 7799,
      "Ġdeficit": 7800,
      "Ġmrs": 7801,
      "Ġborders": 7802,
      "oval": 7803,
      "Ġ58": 7804,
      "Ġvisiting": 7805,
      "Ġproposals": 7806,
      "Ġunions": 7807,
      "Ġhamp": 7808,
      "Ġinvolves": 7809,
      "Ġutah": 7810,
      ".-": 7811,
      "Ġbacter": 7812,
      "Ġ!": 7813,
      "Ġattitude": 7814,
      "Ġengineers": 7815,
      "Ġsuperior": 7816,
      "ystem": 7817,
      "Ġfool": 7818,
      "aret": 7819,
      "rets": 7820,
      "Ġlocked": 7821,
      "Ġcorp": 7822,
      "Ġchelsea": 7823,
      "Ġinsist": 7824,
      "Ġsmartphone": 7825,
      "through": 7826,
      "Ġenterprise": 7827,
      "Ġ600": 7828,
      "Ġmanif": 7829,
      "Ġsarah": 7830,
      "Ġdocumentary": 7831,
      "Ġgraduate": 7832,
      "Ġsoil": 7833,
      "ograph": 7834,
      "Ġhug": 7835,
      "acking": 7836,
      "Ġrestaurants": 7837,
      "Ġmemorial": 7838,
      "Ġtemple": 7839,
      "Ġarchitecture": 7840,
      "Ġbeijing": 7841,
      "Ġcooperation": 7842,
      "Ġlying": 7843,
      "Ġacknowledged": 7844,
      "good": 7845,
      "Ġkong": 7846,
      "Ġpharm": 7847,
      "py": 7848,
      "Ġ99": 7849,
      "Ġ2020": 7850,
      "Ġgor": 7851,
      "rett": 7852,
      "Ġproducers": 7853,
      "Ġjet": 7854,
      "Ġstreaming": 7855,
      "Ġpodcast": 7856,
      "Ġretirement": 7857,
      "Ġencouraged": 7858,
      "42": 7859,
      "Ġparad": 7860,
      "Ġforb": 7861,
      "Ġdeadly": 7862,
      "will": 7863,
      "eller": 7864,
      "Ġperforming": 7865,
      "gal": 7866,
      "len": 7867,
      "Ġrespectively": 7868,
      "ogen": 7869,
      "Ġrational": 7870,
      "Ġtries": 7871,
      "lahoma": 7872,
      "Ġappearances": 7873,
      "uma": 7874,
      "Ġpill": 7875,
      "Ġobtain": 7876,
      "ocation": 7877,
      "Ġwhereas": 7878,
      "Ġcapit": 7879,
      "Ġmes": 7880,
      "09": 7881,
      "Ġdates": 7882,
      "Ġmile": 7883,
      "Ġcounts": 7884,
      "Ġsaving": 7885,
      "Ġ95": 7886,
      "Ġshame": 7887,
      "Ġlandscape": 7888,
      "Ġjonathan": 7889,
      "Ġsubstantial": 7890,
      "Ġtoxic": 7891,
      "een": 7892,
      "jud": 7893,
      "Ġgraham": 7894,
      "tech": 7895,
      "dering": 7896,
      "Ġinstagram": 7897,
      "Ġratings": 7898,
      "Ġiii": 7899,
      "Ġ57": 7900,
      "Ġcheese": 7901,
      "Ġelectoral": 7902,
      "Ġshoulder": 7903,
      "Ġwarren": 7904,
      "Ġjar": 7905,
      "uch": 7906,
      "Ġmm": 7907,
      "Ġlun": 7908,
      "Ġbeta": 7909,
      "Ġlunch": 7910,
      "Ġsymp": 7911,
      "Ġdepends": 7912,
      "Ġstriking": 7913,
      "Ġtargeting": 7914,
      "07": 7915,
      "Ġrecre": 7916,
      "Ġletting": 7917,
      "Ġfisher": 7918,
      "Ġsavings": 7919,
      "Ġpink": 7920,
      "Ġseed": 7921,
      "Ġscope": 7922,
      "Ġoverseas": 7923,
      "Ġdrone": 7924,
      "Ġark": 7925,
      "Ġ85": 7926,
      "wered": 7927,
      "big": 7928,
      "scale": 7929,
      "dney": 7930,
      "Ġspoken": 7931,
      "active": 7932,
      "Ġdish": 7933,
      "Ġthrew": 7934,
      "Ġsean": 7935,
      "Ġhelpful": 7936,
      "Ġsilence": 7937,
      "Ġshipping": 7938,
      "Ġgord": 7939,
      "Ġgulf": 7940,
      "Ġepic": 7941,
      "vo": 7942,
      "Ġpriest": 7943,
      "Ġtape": 7944,
      "Ġmathem": 7945,
      "Ġcelebrate": 7946,
      "cies": 7947,
      "Ġroberts": 7948,
      "Ġroof": 7949,
      "kee": 7950,
      "Ġsupplies": 7951,
      "Ġmargin": 7952,
      "ppers": 7953,
      "86": 7954,
      "Ġsweden": 7955,
      "Ġolympic": 7956,
      "Ġassociate": 7957,
      "Ġgene": 7958,
      "osit": 7959,
      "mus": 7960,
      "Ġinequ": 7961,
      "Ġgraphics": 7962,
      "Ġabroad": 7963,
      "Ġmortg": 7964,
      "Ġpreced": 7965,
      "Ġvel": 7966,
      "Ġchocol": 7967,
      "Ġmunicip": 7968,
      "boy": 7969,
      "backs": 7970,
      "Ġfold": 7971,
      "lc": 7972,
      "Ġabsence": 7973,
      "Ġdiverse": 7974,
      "made": 7975,
      "Ġportray": 7976,
      "Ġkurd": 7977,
      "Ġparalle": 7978,
      "Ġodds": 7979,
      "Ġhaz": 7980,
      "Ġlanding": 7981,
      "Ġwra": 7982,
      "Ġingredients": 7983,
      "Ġhypot": 7984,
      "Ġcoordin": 7985,
      "Ġheritage": 7986,
      "Ġhydro": 7987,
      "Ġabandoned": 7988,
      "Ġpublishing": 7989,
      "otype": 7990,
      "Ġshap": 7991,
      "Ġurged": 7992,
      "aze": 7993,
      "Ġdistract": 7994,
      "alo": 7995,
      "door": 7996,
      "Ġpolitically": 7997,
      "Ġmol": 7998,
      "Ġanalysts": 7999,
      "mind": 8000,
      "Ġparks": 8001,
      "Ġcapabilities": 8002,
      "Ġvig": 8003,
      "Ġspiritual": 8004,
      "Ġsubjects": 8005,
      "die": 8006,
      "Ġarrive": 8007,
      "Ġambassador": 8008,
      "Ġimportantly": 8009,
      "Ġservers": 8010,
      "Ġinstructions": 8011,
      "Ġvoices": 8012,
      "zed": 8013,
      "Ġinsisted": 8014,
      "aeda": 8015,
      "white": 8016,
      "Ġtactics": 8017,
      "Ġbullet": 8018,
      "iti": 8019,
      "06": 8020,
      "Ġoklahoma": 8021,
      "Ġtam": 8022,
      "Ġsubsequent": 8023,
      "Ġtowns": 8024,
      "Ġbrilliant": 8025,
      "Ġmole": 8026,
      "Ġordinary": 8027,
      "Ġconventional": 8028,
      "Ġfet": 8029,
      "ictions": 8030,
      "Ġalexander": 8031,
      "Ġfocusing": 8032,
      "Ġoutrage": 8033,
      "ifer": 8034,
      "Ġrepresenting": 8035,
      "Ġreleases": 8036,
      "Ġweigh": 8037,
      "pie": 8038,
      "Ġcoin": 8039,
      "Ġsear": 8040,
      "iot": 8041,
      "Ġmaryland": 8042,
      "Ġcharity": 8043,
      "ctic": 8044,
      "Ġrepeat": 8045,
      "Ġdivided": 8046,
      "Ġdismissed": 8047,
      "Ġ1996": 8048,
      "Ġjets": 8049,
      "Ġboe": 8050,
      "Ġsteven": 8051,
      "Ġtheater": 8052,
      "Ġdesigns": 8053,
      "++": 8054,
      "bors": 8055,
      "Ġpreparing": 8056,
      "Ġvin": 8057,
      "Ġjen": 8058,
      "Ġignored": 8059,
      "Ġatlantic": 8060,
      "Ġmirror": 8061,
      "oe": 8062,
      "bac": 8063,
      "Ġacquired": 8064,
      "Ġbold": 8065,
      "Ġmemo": 8066,
      "Ġcriticized": 8067,
      "Ġaccomplish": 8068,
      "Ġdeadline": 8069,
      "Ġinstrument": 8070,
      "Ġcopies": 8071,
      "Ġsixth": 8072,
      "Ġstages": 8073,
      "Ġrebels": 8074,
      "Ġdick": 8075,
      "Ġunexpected": 8076,
      "Ġhd": 8077,
      "Ġpope": 8078,
      "Ġchildhood": 8079,
      "rooms": 8080,
      "Ġciting": 8081,
      "Ġbrexit": 8082,
      "Ġguidelines": 8083,
      "irts": 8084,
      "ras": 8085,
      "ucking": 8086,
      "Ġcomprehensive": 8087,
      "Ġclassified": 8088,
      "ether": 8089,
      "Ġconcrete": 8090,
      "Ġosc": 8091,
      "Ġcock": 8092,
      "Ġstability": 8093,
      "Ġentr": 8094,
      "Ġdisorder": 8095,
      "jan": 8096,
      "Ġviolation": 8097,
      "abeth": 8098,
      "Ġsmoking": 8099,
      "Ġhamilton": 8100,
      "Ġbible": 8101,
      "shire": 8102,
      "Ġfiring": 8103,
      "xx": 8104,
      "umin": 8105,
      "Ġhoped": 8106,
      "bus": 8107,
      "Ġunderground": 8108,
      "Ġliterature": 8109,
      "Ġdreams": 8110,
      "Ġ120": 8111,
      "Ġpuzz": 8112,
      "working": 8113,
      "Ġinnocent": 8114,
      "Ġdonations": 8115,
      "Ġspots": 8116,
      "Ġjihad": 8117,
      "Ġtorture": 8118,
      "Ġharassment": 8119,
      "Ġreliable": 8120,
      "Ġsemi": 8121,
      "Ġgt": 8122,
      "bridge": 8123,
      "Ġwider": 8124,
      "Ġros": 8125,
      "41": 8126,
      "ika": 8127,
      "Ġdelhi": 8128,
      "Ġdemanding": 8129,
      "Ġcauc": 8130,
      "Ġintroduce": 8131,
      "esty": 8132,
      "inks": 8133,
      "Ġinvestments": 8134,
      "news": 8135,
      "heim": 8136,
      "Ġchannels": 8137,
      "Ġeliz": 8138,
      "Ġstaying": 8139,
      "minute": 8140,
      "Ġpopularity": 8141,
      "Ġgenerations": 8142,
      "Ġorganic": 8143,
      "Ġprepar": 8144,
      "Ġyemen": 8145,
      "Ġsydney": 8146,
      "Ġriding": 8147,
      "Ġburden": 8148,
      "))": 8149,
      "Ġgathering": 8150,
      "Ġdies": 8151,
      "first": 8152,
      "Ġhu": 8153,
      "43": 8154,
      "Ġforcing": 8155,
      "enez": 8156,
      "Ġspectrum": 8157,
      "pc": 8158,
      "Ġhey": 8159,
      "Ġ1997": 8160,
      "Ġrounds": 8161,
      "Ġtweets": 8162,
      "Ġprotein": 8163,
      "Ġtrillion": 8164,
      "remony": 8165,
      "Ġgab": 8166,
      "Ġwond": 8167,
      "Ġcomey": 8168,
      "ione": 8169,
      "Ġpursue": 8170,
      "Ġdiscour": 8171,
      "aching": 8172,
      "Ġengineer": 8173,
      "Ġreverse": 8174,
      "Ġemerging": 8175,
      "Ġandre": 8176,
      "Ġsecondary": 8177,
      "Ġtrends": 8178,
      "Ġrequested": 8179,
      "Ġregulatory": 8180,
      "inch": 8181,
      "two": 8182,
      "Ġruby": 8183,
      "Ġexecutives": 8184,
      "Ġtamp": 8185,
      "Ġcarter": 8186,
      "Ġmerch": 8187,
      "Ġwaves": 8188,
      "iev": 8189,
      "Ġceremony": 8190,
      "Ġgolf": 8191,
      "Ġathletes": 8192,
      "aga": 8193,
      "mart": 8194,
      "Ġcogn": 8195,
      "Ġscottish": 8196,
      "Ġbrus": 8197,
      "Ġresponses": 8198,
      "cond": 8199,
      "Ġlibert": 8200,
      "usalem": 8201,
      "Ġinstant": 8202,
      "Ġprox": 8203,
      "Ġdeem": 8204,
      "Ġwealthy": 8205,
      "iate": 8206,
      "Ġrelax": 8207,
      "Ġstats": 8208,
      "Ġpredicted": 8209,
      "Ġencounter": 8210,
      "Ġgary": 8211,
      "Ġfame": 8212,
      "Ġdrove": 8213,
      "Ġmystery": 8214,
      "Ġbruce": 8215,
      "Ġbind": 8216,
      "Ġrooms": 8217,
      "Ġbelg": 8218,
      "apolis": 8219,
      "Ġathe": 8220,
      "Ġspo": 8221,
      "Ġadviser": 8222,
      "Ġobjective": 8223,
      "Ġvend": 8224,
      "Ġorganisation": 8225,
      "Ġratio": 8226,
      "Ġprovision": 8227,
      "Ġtennes": 8228,
      "vp": 8229,
      "Ġkiss": 8230,
      "author": 8231,
      "Ġlapt": 8232,
      "Ġsmile": 8233,
      "Ġsevent": 8234,
      "Ġsubmitted": 8235,
      "Ġchronic": 8236,
      "Ġarguing": 8237,
      "Ġrou": 8238,
      "Ġquestioned": 8239,
      "itzer": 8240,
      "Ġdesigner": 8241,
      "Ġswift": 8242,
      "Ġsweep": 8243,
      "Ġtestimony": 8244,
      "text": 8245,
      "Ġdeclar": 8246,
      "Ġyan": 8247,
      "iano": 8248,
      "Ġleon": 8249,
      "Ġautonom": 8250,
      "Ġcoaching": 8251,
      "break": 8252,
      "gi": 8253,
      "Ġassign": 8254,
      "Ġloose": 8255,
      "ahu": 8256,
      "igue": 8257,
      "Ġathletic": 8258,
      "Ġpi": 8259,
      "Ġdialogue": 8260,
      "eries": 8261,
      "Ġcatal": 8262,
      "Ġbudd": 8263,
      "Ġharvard": 8264,
      "zer": 8265,
      "Ġfossil": 8266,
      "Ġdeserve": 8267,
      "Ġdying": 8268,
      "trump": 8269,
      "Ġanxiety": 8270,
      "encing": 8271,
      "lee": 8272,
      "Ġkings": 8273,
      "fare": 8274,
      "Ġdefending": 8275,
      "Ġsuspects": 8276,
      "Ġpicking": 8277,
      "Ġdefender": 8278,
      "Ġ59": 8279,
      "Ġfleet": 8280,
      "log": 8281,
      "dep": 8282,
      "Ġeducational": 8283,
      "Ġthreatening": 8284,
      "Ġcorps": 8285,
      "Ġjournalism": 8286,
      "Ġreveals": 8287,
      "Ġagriculture": 8288,
      "week": 8289,
      "Ġnev": 8290,
      "Ġky": 8291,
      "Ġsetup": 8292,
      "Ġmorgan": 8293,
      "Ġmanagers": 8294,
      "Ġadvertisements": 8295,
      "Ġoakland": 8296,
      "base": 8297,
      "chers": 8298,
      "party": 8299,
      "bin": 8300,
      "Ġtitled": 8301,
      "02": 8302,
      "dule": 8303,
      "Ġintim": 8304,
      "Ġhong": 8305,
      "Ġedward": 8306,
      "Ġdiscount": 8307,
      "Ġstudied": 8308,
      "85": 8309,
      "ouri": 8310,
      "Ġfundra": 8311,
      "Ġentitled": 8312,
      "Ġknee": 8313,
      "Ġcoinc": 8314,
      "Ġpointing": 8315,
      "Ġappointed": 8316,
      "Ġcalm": 8317,
      "Ġapproached": 8318,
      "Ġmechanism": 8319,
      "Ġhosted": 8320,
      "Ġdj": 8321,
      "Ġactively": 8322,
      "Ġcommonly": 8323,
      "Ġthorough": 8324,
      "ql": 8325,
      "Ġstruggled": 8326,
      "Ġpromising": 8327,
      "Ġsoldier": 8328,
      "Ġreplic": 8329,
      "plate": 8330,
      "Ġhob": 8331,
      "Ġnur": 8332,
      "Ġloop": 8333,
      "Ġprisoners": 8334,
      "Ġreforms": 8335,
      "Ġmemor": 8336,
      "Ġcontacted": 8337,
      "Ġbottle": 8338,
      "Ġdating": 8339,
      "Ġmodule": 8340,
      "attan": 8341,
      "Ġchocolate": 8342,
      "Ġdemonstrated": 8343,
      "Ġcivilian": 8344,
      "Ġprincipal": 8345,
      "Ġdeny": 8346,
      "Ġbroader": 8347,
      "Ġbattles": 8348,
      "govern": 8349,
      "cover": 8350,
      "Ġreplied": 8351,
      "Ġsword": 8352,
      "Ġdutch": 8353,
      "Ġaqu": 8354,
      "Ġgil": 8355,
      "Ġhelic": 8356,
      "Ġstrategies": 8357,
      "Ġpoison": 8358,
      "ferences": 8359,
      "Ġadditionally": 8360,
      "shot": 8361,
      "nett": 8362,
      "Ġtodd": 8363,
      "Ġreserved": 8364,
      "Ġdesktop": 8365,
      "Ġsne": 8366,
      "cor": 8367,
      "Ġabsor": 8368,
      "Ġ800": 8369,
      "Ġchaos": 8370,
      "oenix": 8371,
      "atar": 8372,
      "Ġstudios": 8373,
      "Ġlegislature": 8374,
      "Ġhospitals": 8375,
      "Ġstere": 8376,
      "Ġclinical": 8377,
      "held": 8378,
      "Ġdrives": 8379,
      "preced": 8380,
      "Ġwings": 8381,
      "Ġmoreover": 8382,
      "Ġmeg": 8383,
      "reuters": 8384,
      "Ġquoted": 8385,
      "wind": 8386,
      "Ġsheet": 8387,
      "Ġtables": 8388,
      "di": 8389,
      "Ġwitnesses": 8390,
      "Ġexport": 8391,
      "Ġvit": 8392,
      "Ġwanting": 8393,
      "ounce": 8394,
      "Ġendorse": 8395,
      "ompson": 8396,
      "lando": 8397,
      "Ġpunch": 8398,
      "Ġbart": 8399,
      "Ġpropaganda": 8400,
      "Ġkilomet": 8401,
      "je": 8402,
      "Ġstamp": 8403,
      "Ġbias": 8404,
      "Ġjerusalem": 8405,
      "zing": 8406,
      "Ġsignature": 8407,
      "Ġdifferently": 8408,
      "orship": 8409,
      "Ġbish": 8410,
      "vereign": 8411,
      "Ġlands": 8412,
      "Ġbacking": 8413,
      "Ġalter": 8414,
      "Ġupload": 8415,
      "urd": 8416,
      "stop": 8417,
      "Ġpalestinians": 8418,
      "Ġcm": 8419,
      "Ġacid": 8420,
      "Ġlect": 8421,
      "Ġenthusi": 8422,
      "Ġcompeting": 8423,
      "Ġeligible": 8424,
      "Ġdual": 8425,
      "Ġlibya": 8426,
      "precedented": 8427,
      "Ġcredits": 8428,
      "Ġ__": 8429,
      "Ġamy": 8430,
      "Ġhire": 8431,
      "Ġclothing": 8432,
      "Ġinquiry": 8433,
      "omes": 8434,
      "Ġmurray": 8435,
      "Ġexpanding": 8436,
      "because": 8437,
      "Ġbreath": 8438,
      "Ġhunting": 8439,
      "Ġconsensus": 8440,
      "Ġvert": 8441,
      "Ġlegally": 8442,
      "Ġexecution": 8443,
      "icket": 8444,
      "Ġberlin": 8445,
      "67": 8446,
      "ders": 8447,
      "dec": 8448,
      "Ġtherapy": 8449,
      "Ġadap": 8450,
      "Ġmemories": 8451,
      "Ġasset": 8452,
      "Ġassad": 8453,
      "Ġstal": 8454,
      "Ġtremend": 8455,
      "Ġease": 8456,
      "Ġcustody": 8457,
      "Ġappeals": 8458,
      "Ġhart": 8459,
      "Ġmigrants": 8460,
      "claim": 8461,
      "hot": 8462,
      "Ġconsent": 8463,
      "Ġphrase": 8464,
      "Ġcharlie": 8465,
      "Ġsinger": 8466,
      "Ġmls": 8467,
      "iel": 8468,
      "Ġpromoting": 8469,
      "Ġreds": 8470,
      "Ġministers": 8471,
      "Ġabilities": 8472,
      "Ġsid": 8473,
      "Ġbirthday": 8474,
      "Ġimplications": 8475,
      "Ġmeasured": 8476,
      "Ġphysically": 8477,
      "Ġ);": 8478,
      "Ġsorts": 8479,
      ".'\"": 8480,
      "Ġmanufacturers": 8481,
      "Ġexha": 8482,
      "Ġsolo": 8483,
      "Ġrecruit": 8484,
      "Ġlineup": 8485,
      "Ġawarded": 8486,
      "ieties": 8487,
      "Ġescal": 8488,
      "Ġregistration": 8489,
      "Ġaccessible": 8490,
      "Ġmissions": 8491,
      "Ġneighbors": 8492,
      "Ġbatman": 8493,
      "Ġnurs": 8494,
      "Ġwounded": 8495,
      "Ġsimon": 8496,
      "Ġ1995": 8497,
      "comes": 8498,
      "Ġkiller": 8499,
      "Ġpollution": 8500,
      "Ġjudgment": 8501,
      "Ġhunter": 8502,
      "Ġadvocate": 8503,
      "Ġargues": 8504,
      "Ġpentagon": 8505,
      "Ġtennessee": 8506,
      "president": 8507,
      "Ġtired": 8508,
      "Ġdispute": 8509,
      "isons": 8510,
      "press": 8511,
      "Ġtransaction": 8512,
      "Ġlav": 8513,
      "holders": 8514,
      "Ġkeen": 8515,
      "Ġcompat": 8516,
      "Ġsilent": 8517,
      "Ġthompson": 8518,
      "Ġultra": 8519,
      "bul": 8520,
      "Ġscroll": 8521,
      "Ġguid": 8522,
      "rition": 8523,
      "remy": 8524,
      "ials": 8525,
      "Ġeggs": 8526,
      "Ġfabric": 8527,
      "Ġdv": 8528,
      "Ġphysics": 8529,
      "Ġcurt": 8530,
      "Ġphenomenon": 8531,
      "Ġprocedure": 8532,
      "Ġclark": 8533,
      "Ġmeaningful": 8534,
      "lined": 8535,
      "Ġunve": 8536,
      "Ġnotable": 8537,
      "Ġbillions": 8538,
      "Ġscrut": 8539,
      "Ġremarkable": 8540,
      "Ġloves": 8541,
      "Ġpron": 8542,
      "Ġenhance": 8543,
      "inction": 8544,
      "Ġharper": 8545,
      "Ġrefugee": 8546,
      "Ġhelicop": 8547,
      "aware": 8548,
      "Ġincomp": 8549,
      "Ġpresentation": 8550,
      "Ġstepped": 8551,
      "abet": 8552,
      "Ġsettled": 8553,
      "ylum": 8554,
      "hard": 8555,
      "Ġaged": 8556,
      "Ġunfair": 8557,
      "breaking": 8558,
      "ultane": 8559,
      "Ġdivor": 8560,
      "Ġshoes": 8561,
      "Ġeveryday": 8562,
      "Ġhorn": 8563,
      "Ġconservation": 8564,
      "Ġlogo": 8565,
      "Ġpersu": 8566,
      "Ġexplaining": 8567,
      "Ġdiscussing": 8568,
      "fit": 8569,
      "Ġdifficulty": 8570,
      "Ġ).": 8571,
      "Ġwildlife": 8572,
      "Ġcole": 8573,
      "Ġguests": 8574,
      "Ġstored": 8575,
      "Ġsustainable": 8576,
      "Ġvolunteers": 8577,
      "Ġcapitol": 8578,
      "Ġparticipation": 8579,
      "Ġstudying": 8580,
      "Ġinches": 8581,
      "Ġarbit": 8582,
      "Ġwireless": 8583,
      "Ġtreasury": 8584,
      "Ġexperiments": 8585,
      "tra": 8586,
      "Ġgordon": 8587,
      "stitution": 8588,
      "Ġht": 8589,
      "Ġsearching": 8590,
      "Ġcategories": 8591,
      "Ġchase": 8592,
      "Ġpitts": 8593,
      "ads": 8594,
      "Ġconsideration": 8595,
      "ppy": 8596,
      "Ġpear": 8597,
      "Ġhawai": 8598,
      "Ġcontribution": 8599,
      "olds": 8600,
      "Ġdup": 8601,
      "Ġopenly": 8602,
      "Ġpolar": 8603,
      "Ġsovereign": 8604,
      "Ġimperial": 8605,
      "Ġemployed": 8606,
      "Ġdiseases": 8607,
      "ifi": 8608,
      "Ġprospects": 8609,
      "Ġartificial": 8610,
      "Ġmagnet": 8611,
      "Ġtons": 8612,
      "Ġsli": 8613,
      "Ġpopulations": 8614,
      "Ġrhetoric": 8615,
      "Ġmanifest": 8616,
      "Ġwedding": 8617,
      "Ġprosecutor": 8618,
      "Ġfran": 8619,
      "Ġrevers": 8620,
      "Ġsimultane": 8621,
      "Ġunity": 8622,
      "Ġinvalid": 8623,
      "Ġnap": 8624,
      "Ġtiming": 8625,
      "bury": 8626,
      "Ġoutlets": 8627,
      "Ġstance": 8628,
      "Ġ1994": 8629,
      "payers": 8630,
      "Ġeager": 8631,
      "Ġaddresses": 8632,
      "osystem": 8633,
      "Ġdemonstrate": 8634,
      "Ġjean": 8635,
      "Ġkhan": 8636,
      "Ġelizabeth": 8637,
      "mans": 8638,
      "tenance": 8639,
      "izer": 8640,
      "Ġtrek": 8641,
      "Ġerrors": 8642,
      "ource": 8643,
      "Ġpython": 8644,
      "theless": 8645,
      "Ġposting": 8646,
      "Ġknock": 8647,
      "Ġsequence": 8648,
      "Ġroots": 8649,
      "estyle": 8650,
      "Ġpersons": 8651,
      "Ġphoenix": 8652,
      "Ġstops": 8653,
      "Ġemployers": 8654,
      "Ġbeating": 8655,
      "Ġlessons": 8656,
      "Ġintegrity": 8657,
      "Ġchrome": 8658,
      "looking": 8659,
      "Ġalan": 8660,
      "Ġutility": 8661,
      "Ġkentucky": 8662,
      "Ġpulling": 8663,
      "Ġtheatre": 8664,
      "Ġdamaged": 8665,
      "ela": 8666,
      "Ġnich": 8667,
      "Ġanimation": 8668,
      "Ġdiamond": 8669,
      "onsored": 8670,
      "Ġlesson": 8671,
      "wall": 8672,
      "Ġwales": 8673,
      "Ġgenre": 8674,
      "Ġinsert": 8675,
      "Ġbrands": 8676,
      "Ġguards": 8677,
      "ounding": 8678,
      "03": 8679,
      "ileaks": 8680,
      "Ġpap": 8681,
      "Ġsubstance": 8682,
      "Ġprecisely": 8683,
      "Ġsubmit": 8684,
      "Ġembass": 8685,
      "Ġfing": 8686,
      "Ġtrials": 8687,
      "Ġmaintained": 8688,
      "Ġasylum": 8689,
      "Ġtesla": 8690,
      "Ġfollowers": 8691,
      "Ġmatthew": 8692,
      "Ġfrequency": 8693,
      "Ġmontreal": 8694,
      "Ġpassage": 8695,
      "Ġvietnam": 8696,
      "hill": 8697,
      "Ġclip": 8698,
      "lining": 8699,
      "Ġmanh": 8700,
      "Ġ00": 8701,
      "Ġjava": 8702,
      "mid": 8703,
      "Ġfatal": 8704,
      "ader": 8705,
      "Ġorient": 8706,
      "Ġandy": 8707,
      "Ġrug": 8708,
      "Ġstatist": 8709,
      "Ġhud": 8710,
      "Ġcollaboration": 8711,
      "umber": 8712,
      "Ġwet": 8713,
      "Ġ66": 8714,
      "fers": 8715,
      "Ġpsychological": 8716,
      "Ġphill": 8717,
      "Ġinsult": 8718,
      "Ġarrival": 8719,
      "Ġepa": 8720,
      "utive": 8721,
      "alia": 8722,
      "och": 8723,
      "Ġcounterpart": 8724,
      "Ġqueens": 8725,
      "Ġnan": 8726,
      "Ġrussell": 8727,
      "Ġstro": 8728,
      "via": 8729,
      "opher": 8730,
      "omed": 8731,
      "Ġacknowledge": 8732,
      "Ġsr": 8733,
      "Ġcompensation": 8734,
      "Ġdean": 8735,
      "pted": 8736,
      "Ġtraged": 8737,
      "Ġcolour": 8738,
      "Ġbj": 8739,
      "Ġtalented": 8740,
      "Ġot": 8741,
      "pton": 8742,
      "ports": 8743,
      "abs": 8744,
      "Ġunprecedented": 8745,
      "Ġcouples": 8746,
      "inst": 8747,
      "Ġuniform": 8748,
      "Ġintercept": 8749,
      "Ġremoval": 8750,
      "archy": 8751,
      "Ġthri": 8752,
      "Ġformation": 8753,
      "Ġlift": 8754,
      "Ġ67": 8755,
      "ratic": 8756,
      "Ġprin": 8757,
      "Ġpatent": 8758,
      "Ġgib": 8759,
      "Ġmuscle": 8760,
      "Ġpossess": 8761,
      "Ġlions": 8762,
      "Ġicon": 8763,
      "Ġcontrad": 8764,
      "Ġantonio": 8765,
      "Ġconstitu": 8766,
      "Ġnevertheless": 8767,
      "Ġgrey": 8768,
      "Ġub": 8769,
      "organ": 8770,
      "Ġimpression": 8771,
      "Ġlap": 8772,
      "Ġnat": 8773,
      "Ġlifetime": 8774,
      "Ġnel": 8775,
      "Ġoccasionally": 8776,
      "vens": 8777,
      "Ġridiculous": 8778,
      "Ġundert": 8779,
      "Ġtheft": 8780,
      "Ġaaron": 8781,
      "cos": 8782,
      "Ġencouraging": 8783,
      "Ġsentenced": 8784,
      "Ġobsc": 8785,
      "arity": 8786,
      "Ġnode": 8787,
      "Ġfled": 8788,
      "Ġrepair": 8789,
      "Ġrecommendations": 8790,
      "Ġhomosexual": 8791,
      "Ġpreview": 8792,
      "Ġprocedures": 8793,
      "date": 8794,
      "oli": 8795,
      "hell": 8796,
      "Ġpermit": 8797,
      "anim": 8798,
      "Ġmomentum": 8799,
      "Ġcheaper": 8800,
      "Ġmaintenance": 8801,
      "Ġextraordinary": 8802,
      "Ġbrooklyn": 8803,
      "awn": 8804,
      "Ġembed": 8805,
      "Ġcontinent": 8806,
      "Ġsurprisingly": 8807,
      "Ġvenez": 8808,
      "Ġdiplomatic": 8809,
      "Ġecosystem": 8810,
      "Ġdelight": 8811,
      "Ġnerv": 8812,
      "Ġcreatures": 8813,
      "Ġss": 8814,
      "starter": 8815,
      "stri": 8816,
      "Ġkeyboard": 8817,
      "phy": 8818,
      "Ġdisappointed": 8819,
      "Ġdistingu": 8820,
      "sect": 8821,
      "Ġcancell": 8822,
      "Ġsummary": 8823,
      "Ġgest": 8824,
      "Ġgates": 8825,
      "Ġventure": 8826,
      "Ġchoosing": 8827,
      "Ġmilitants": 8828,
      "Ġsegment": 8829,
      "Ġsket": 8830,
      "Ġgreatly": 8831,
      "gered": 8832,
      "Ġprobe": 8833,
      "Ġbiz": 8834,
      "Ġmillenn": 8835,
      "Ġmood": 8836,
      "Ġrevol": 8837,
      "Ġmah": 8838,
      "Ġbadly": 8839,
      "Ġjeremy": 8840,
      "Ġpartly": 8841,
      "ules": 8842,
      "Ġprofessionals": 8843,
      "ogy": 8844,
      "Ġcraig": 8845,
      "Ġdot": 8846,
      "Ġfier": 8847,
      "Ġorlando": 8848,
      "Ġpunishment": 8849,
      "Ġfights": 8850,
      "Ġburst": 8851,
      "Ġ72": 8852,
      "Ġrecession": 8853,
      "Ġft": 8854,
      "Ġfacilit": 8855,
      "Ġgameplay": 8856,
      "Ġweakness": 8857,
      "Ġeliminate": 8858,
      "Ġcous": 8859,
      "lfriend": 8860,
      "eria": 8861,
      "Ġrequiring": 8862,
      "hero": 8863,
      "izza": 8864,
      "87": 8865,
      "Ġprompted": 8866,
      "Ġmichel": 8867,
      "Ġcorrupt": 8868,
      "Ġinequality": 8869,
      "omy": 8870,
      "orous": 8871,
      "Ġearthqu": 8872,
      "Ġvenezuel": 8873,
      "Ġattractive": 8874,
      "Ġpreferred": 8875,
      "Ġcord": 8876,
      "Ġintegration": 8877,
      "Ġwise": 8878,
      "Ġowns": 8879,
      "Ġfoster": 8880,
      "Ġpromotion": 8881,
      "Ġresort": 8882,
      "quest": 8883,
      "Ġtai": 8884,
      "Ġay": 8885,
      "Ġreserv": 8886,
      "Ġviolations": 8887,
      "Ġcertific": 8888,
      "Ġbass": 8889,
      "Ġnowhere": 8890,
      "Ġrh": 8891,
      "Ġrequirement": 8892,
      "Ġchuck": 8893,
      "Ġaims": 8894,
      "Ġtrailer": 8895,
      "Ġshirt": 8896,
      "ben": 8897,
      "Ġindicates": 8898,
      "Ġcarries": 8899,
      "iture": 8900,
      "Ġhi": 8901,
      "Ġbiological": 8902,
      "Ġtraveling": 8903,
      "apore": 8904,
      "Ġtiss": 8905,
      "aki": 8906,
      "Ġwarriors": 8907,
      "Ġanch": 8908,
      "Ġpregnant": 8909,
      "Ġconvince": 8910,
      "Ġgrace": 8911,
      "Ġovercome": 8912,
      "Ġsits": 8913,
      "Ġcontrary": 8914,
      "Ġtaxpayers": 8915,
      "Ġtransparency": 8916,
      "igenous": 8917,
      "Ġperry": 8918,
      "Ġsignals": 8919,
      "mble": 8920,
      "Ġdear": 8921,
      "Ġethics": 8922,
      "child": 8923,
      "Ġfinals": 8924,
      "Ġmoderate": 8925,
      "Ġnevada": 8926,
      "Ġassigned": 8927,
      "Ġmps": 8928,
      "iban": 8929,
      "hey": 8930,
      "Ġgem": 8931,
      "Ġgill": 8932,
      "Ġchron": 8933,
      "asty": 8934,
      "Ġresolve": 8935,
      "Ġdominant": 8936,
      "acked": 8937,
      "89": 8938,
      "Ġinspiration": 8939,
      "Ġcontemporary": 8940,
      "Ġjenn": 8941,
      "Ġmeal": 8942,
      "ctr": 8943,
      "Ġanne": 8944,
      "Ġranking": 8945,
      "Ġfrequent": 8946,
      "Ġpittsburgh": 8947,
      "Ġdesperate": 8948,
      "brid": 8949,
      "Ġwiz": 8950,
      "Ġmunicipal": 8951,
      "Ġwikileaks": 8952,
      "Ġneuro": 8953,
      "Ġgym": 8954,
      "gue": 8955,
      "Ġfurthermore": 8956,
      "Ġdramatically": 8957,
      "sub": 8958,
      "black": 8959,
      "lif": 8960,
      "Ġthunder": 8961,
      "Ġ62": 8962,
      "arn": 8963,
      "Ġwhis": 8964,
      "Ġdal": 8965,
      "Ġtang": 8966,
      "Ġcreator": 8967,
      "Ġconfiguration": 8968,
      "Ġrepeal": 8969,
      "Ġkr": 8970,
      "Ġpleased": 8971,
      "Ġexplosion": 8972,
      "Ġworlds": 8973,
      "Ġremoving": 8974,
      "Ġboxes": 8975,
      "Ġwhist": 8976,
      "Ġshocked": 8977,
      "Ġnewsletters": 8978,
      "Ġassumed": 8979,
      "Ġcombine": 8980,
      "erce": 8981,
      "user": 8982,
      "Ġtoll": 8983,
      "Ġbankrupt": 8984,
      "Ġrangers": 8985,
      "Ġperceived": 8986,
      "Ġ1992": 8987,
      "ester": 8988,
      "Ġcs": 8989,
      "Ġbenefic": 8990,
      "Ġally": 8991,
      "Ġsie": 8992,
      "Ġrebel": 8993,
      "Ġoppose": 8994,
      "Ġplaystation": 8995,
      "anche": 8996,
      "Ġmountains": 8997,
      "awks": 8998,
      "burn": 8999,
      "Ġsubstit": 9000,
      "Ġinterviewed": 9001,
      "Ġabstract": 9002,
      "liance": 9003,
      "ateral": 9004,
      "Ġhanging": 9005,
      "Ġhills": 9006,
      "Ġther": 9007,
      "Ġdonors": 9008,
      "Ġirre": 9009,
      "Ġsou": 9010,
      "arre": 9011,
      "Ġinvasion": 9012,
      "Ġdeployed": 9013,
      "Ġdash": 9014,
      "Ġknife": 9015,
      "Ġnose": 9016,
      "Ġembrace": 9017,
      "Ġcenturies": 9018,
      "san": 9019,
      "zo": 9020,
      "Ġbrutal": 9021,
      "Ġdawn": 9022,
      "Ġbuck": 9023,
      "Ġmouse": 9024,
      "ributes": 9025,
      "Ġperformances": 9026,
      "Ġnationwide": 9027,
      "oded": 9028,
      "Ġunderlying": 9029,
      "Ġquit": 9030,
      "Ġspeculation": 9031,
      "left": 9032,
      "bourne": 9033,
      "oln": 9034,
      "Ġbun": 9035,
      "Ġdefeated": 9036,
      "Ġpremie": 9037,
      "59": 9038,
      "Ġvocal": 9039,
      "Ġpolling": 9040,
      "Ġspy": 9041,
      "nie": 9042,
      "Ġpist": 9043,
      "Ġanswered": 9044,
      "Ġcommunicate": 9045,
      "Ġseized": 9046,
      "eters": 9047,
      "Ġottawa": 9048,
      "cur": 9049,
      "Ġhiring": 9050,
      "Ġtale": 9051,
      "Ġmissouri": 9052,
      "Ġrenewable": 9053,
      "Ġrud": 9054,
      "wich": 9055,
      "aus": 9056,
      "Ġslot": 9057,
      "Ġcommons": 9058,
      "Ġcorrel": 9059,
      "Ġcommunist": 9060,
      "Ġcamps": 9061,
      "Ġinaug": 9062,
      "Ġteammates": 9063,
      "sk": 9064,
      "Ġsacrif": 9065,
      "election": 9066,
      "maker": 9067,
      "being": 9068,
      "Ġfried": 9069,
      "Ġcalend": 9070,
      "Ġargent": 9071,
      "Ġcollaps": 9072,
      "Ġvlad": 9073,
      "Ġstir": 9074,
      "Ġlaboratory": 9075,
      "ng": 9076,
      "Ġresearcher": 9077,
      "Ġ''": 9078,
      "uten": 9079,
      "iffs": 9080,
      "owski": 9081,
      "Ġcharging": 9082,
      "Ġbombs": 9083,
      "about": 9084,
      "Ġperception": 9085,
      "leans": 9086,
      "screen": 9087,
      "Ġoutstanding": 9088,
      "Ġinstances": 9089,
      "obile": 9090,
      "kers": 9091,
      "Ġmaintaining": 9092,
      "test": 9093,
      "Ġoz": 9094,
      "Ġng": 9095,
      "Ġhomeland": 9096,
      "Ġja": 9097,
      "Ġswit": 9098,
      "Ġpassenger": 9099,
      "Ġ700": 9100,
      "Ġmanual": 9101,
      "Ġcontroller": 9102,
      "rations": 9103,
      "Ġgdp": 9104,
      "Ġmck": 9105,
      "Ġlone": 9106,
      "Ġreagan": 9107,
      "Ġleaked": 9108,
      "Ġ1950": 9109,
      "Ġcurious": 9110,
      "Ġcapitalism": 9111,
      "agic": 9112,
      "Ġdescribing": 9113,
      "Ġbands": 9114,
      "Ġflour": 9115,
      "Ġhonestly": 9116,
      "security": 9117,
      "Ġbreast": 9118,
      "Ġopposing": 9119,
      "Ġheadlines": 9120,
      "Ġcave": 9121,
      "build": 9122,
      "Ġsocialist": 9123,
      "xture": 9124,
      "Ġchristopher": 9125,
      "Ġgriff": 9126,
      "Ġriders": 9127,
      "Ġrt": 9128,
      "Ġminimal": 9129,
      "Ġlobb": 9130,
      "Ġadopt": 9131,
      "Ġtheories": 9132,
      "Ġnik": 9133,
      "Ġspeakers": 9134,
      "Ġballs": 9135,
[...]
